<unk>	0
<s>	0
</s>	0
▁क	-0
▁t	-1
▁a	-2
he	-3
▁ह	-4
in	-5
▁स	-6
▁the	-7
▁o	-8
re	-9
▁प	-10
▁s	-11
▁म	-12
▁w	-13
्र	-14
er	-15
▁है	-16
is	-17
on	-18
at	-19
▁c	-20
ार	-21
en	-22
▁के	-23
▁b	-24
ें	-25
▁p	-26
▁ज	-27
▁of	-28
it	-29
▁व	-30
nd	-31
▁अ	-32
या	-33
▁in	-34
▁f	-35
▁न	-36
▁m	-37
ed	-38
or	-39
▁ब	-40
es	-41
ों	-42
an	-43
ou	-44
al	-45
▁द	-46
▁d	-47
▁उ	-48
ar	-49
▁ल	-50
▁and	-51
▁h	-52
▁में	-53
▁to	-54
ने	-55
▁त	-56
ing	-57
ता	-58
▁र	-59
र्	-60
▁औ	-61
ion	-62
▁और	-63
्य	-64
▁की	-65
as	-66
▁th	-67
ान	-68
▁प्र	-69
▁l	-70
▁n	-71
▁आ	-72
ic	-73
▁कर	-74
िक	-75
▁कि	-76
▁को	-77
▁भ	-78
ro	-79
▁का	-80
▁से	-81
ent	-82
▁g	-83
il	-84
्त	-85
▁is	-86
▁e	-87
ना	-88
▁इ	-89
▁ग	-90
▁re	-91
▁be	-92
ित	-93
ve	-94
le	-95
▁ए	-96
ct	-97
▁हो	-98
▁पर	-99
▁य	-100
om	-101
▁(	-102
ाल	-103
st	-104
्व	-105
िए	-106
▁y	-107
id	-108
▁च	-109
▁for	-110
ut	-111
▁हैं	-112
▁he	-113
ra	-114
ot	-115
ही	-116
▁श	-117
▁u	-118
im	-119
▁वि	-120
▁एक	-121
▁जा	-122
न्	-123
ते	-124
ation	-125
se	-126
▁on	-127
▁इस	-128
ur	-129
▁सं	-130
ly	-131
▁wh	-132
ce	-133
था	-134
ver	-135
्ष	-136
ति	-137
et	-138
ll	-139
ay	-140
▁it	-141
ड़	-142
ow	-143
▁लिए	-144
ad	-145
▁we	-146
िय	-147
▁you	-148
स्	-149
▁1	-150
ती	-151
हा	-152
ोग	-153
के	-154
▁-	-155
▁st	-156
▁सम	-157
्या	-158
▁that	-159
ig	-160
▁उस	-161
ला	-162
ir	-163
हीं	-164
am	-165
ch	-166
▁as	-167
्ट	-168
▁pro	-169
▁सा	-170
▁ख	-171
▁an	-172
▁हम	-173
िया	-174
▁de	-175
▁con	-176
ment	-177
▁दे	-178
▁नहीं	-179
▁'	-180
ol	-181
▁are	-182
▁भी	-183
त्र	-184
▁अप	-185
वा	-186
ith	-187
▁नि	-188
if	-189
ul	-190
ill	-191
▁जो	-192
रा	-193
▁ने	-194
▁रा	-195
▁k	-196
▁फ	-197
▁ha	-198
▁with	-199
से	-200
का	-201
ri	-202
od	-203
▁this	-204
▁उन	-205
ter	-206
▁or	-207
▁se	-208
▁यह	-209
▁not	-210
▁su	-211
री	-212
▁तो	-213
▁was	-214
▁ind	-215
ld	-216
▁v	-217
▁com	-218
her	-219
ुम	-220
▁sh	-221
▁किया	-222
ास	-223
क्ष	-224
ge	-225
▁बा	-226
कार	-227
गा	-228
सी	-229
▁थ	-230
res	-231
▁2	-232
िन	-233
ess	-234
▁ही	-235
▁r	-236
िल	-237
ers	-238
ab	-239
नी	-240
op	-241
ate	-242
▁अन	-243
▁by	-244
दा	-245
सा	-246
ष्ट	-247
ak	-248
th	-249
▁ex	-250
▁they	-251
▁all	-252
▁या	-253
कर	-254
▁करने	-255
त्	-256
ंग	-257
rom	-258
ले	-259
▁have	-260
▁मु	-261
ain	-262
की	-263
ेश	-264
ist	-265
मा	-266
▁ch	-267
nt	-268
ht	-269
▁स्	-270
ity	-271
▁अध	-272
▁at	-273
▁i	-274
est	-275
▁from	-276
▁तुम	-277
▁हु	-278
▁कार	-279
iv	-280
us	-281
▁ne	-282
ारा	-283
▁था	-284
▁will	-285
▁al	-286
and	-287
▁रह	-288
▁जि	-289
▁सक	-290
qu	-291
▁वह	-292
pp	-293
क्त	-294
▁his	-295
ant	-296
ल्	-297
all	-298
▁कु	-299
ive	-300
िर	-301
ore	-302
ियों	-303
ाह	-304
ाम	-305
▁has	-306
▁so	-307
ies	-308
um	-309
न्ह	-310
em	-311
▁भार	-312
▁ले	-313
ich	-314
▁उप	-315
▁go	-316
▁j	-317
ac	-318
▁indi	-319
▁आप	-320
ैं	-321
द्	-322
ect	-323
ज़	-324
▁लोग	-325
▁वे	-326
art	-327
os	-328
▁ड	-329
ure	-330
▁गया	-331
ould	-332
▁which	-333
ort	-334
▁wor	-335
▁सु	-336
रे	-337
ओं	-338
▁do	-339
ci	-340
ारे	-341
un	-342
▁them	-343
00	-344
स्त	-345
भा	-346
ूप	-347
end	-348
ंद	-349
गे	-350
▁अपने	-351
▁who	-352
वि	-353
च्	-354
▁whe	-355
▁उन्ह	-356
red	-357
ारी	-358
▁there	-359
ंत	-360
▁ध	-361
our	-362
ूर्	-363
ind	-364
ust	-365
▁"	-366
ard	-367
▁sp	-368
्री	-369
▁तथा	-370
ंध	-371
▁पह	-372
▁but	-373
ight	-374
ie	-375
▁me	-376
▁वाल	-377
ली	-378
मान	-379
▁pl	-380
ous	-381
▁ऐ	-382
▁le	-383
▁can	-384
▁छ	-385
ction	-386
▁स्व	-387
▁ab	-388
▁19	-389
ुर	-390
▁द्व	-391
▁कुछ	-392
▁their	-393
▁विश	-394
pt	-395
▁साथ	-396
▁जिस	-397
▁मे	-398
▁sa	-399
में	-400
▁man	-401
▁थे	-402
▁चाह	-403
ated	-404
▁अधिक	-405
▁घ	-406
▁दो	-407
भी	-408
ome	-409
▁un	-410
ud	-411
▁india	-412
▁en	-413
ag	-414
ther	-415
▁रूप	-416
खा	-417
कि	-418
ोज	-419
ry	-420
द्ध	-421
▁मैं	-422
▁us	-423
ुत	-424
▁ad	-425
ाय	-426
so	-427
age	-428
cc	-429
ount	-430
म्	-431
▁lo	-432
▁one	-433
rou	-434
गी	-435
▁im	-436
▁comp	-437
▁भारत	-438
ीन	-439
▁int	-440
ार्	-441
ाप	-442
▁him	-443
ord	-444
▁बह	-445
▁किसी	-446
ah	-447
▁भा	-448
ong	-449
▁जाता	-450
ast	-451
ंड	-452
ढ़	-453
▁क्ष	-454
ूल	-455
▁अनु	-456
▁तक	-457
योग	-458
▁निर्	-459
▁राज	-460
▁द्वारा	-461
▁ट	-462
श्	-463
▁व्य	-464
▁परि	-465
दि	-466
ide	-467
▁प्रति	-468
ans	-469
ance	-470
ंत्र	-471
▁कोई	-472
▁वर्	-473
ाना	-474
ru	-475
▁पा	-476
▁pe	-477
▁dis	-478
ose	-479
देश	-480
▁दिया	-481
▁मा	-482
▁जब	-483
▁your	-484
▁बना	-485
▁ra	-486
को	-487
ap	-488
▁ला	-489
▁राष्ट	-490
ame	-491
त्त	-492
ost	-493
▁थी	-494
av	-495
जी	-496
▁no	-497
▁our	-498
▁pres	-499
▁कार्य	-500
ाद	-501
न्द	-502
▁were	-503
▁स्थ	-504
▁also	-505
▁कहा	-506
▁been	-507
▁करते	-508
▁res	-509
▁होता	-510
▁up	-511
▁cont	-512
▁उनके	-513
▁am	-514
ult	-515
▁per	-516
ary	-517
out	-518
el	-519
ally	-520
very	-521
ear	-522
▁ag	-523
▁क्या	-524
रण	-525
ok	-526
▁had	-527
▁रहे	-528
ip	-529
नों	-530
▁when	-531
क्र	-532
धार	-533
▁मह	-534
ice	-535
now	-536
▁इन	-537
able	-538
▁comm	-539
गर	-540
▁तर	-541
01	-542
ish	-543
▁ar	-544
▁जी	-545
one	-546
▁3	-547
ik	-548
▁पु	-549
न्न	-550
gh	-551
बंध	-552
ानी	-553
▁ये	-554
ब्	-555
ष्	-556
ंच	-557
vel	-558
▁tim	-559
▁सि	-560
ूर	-561
▁करना	-562
▁if	-563
ff	-564
द्य	-565
per	-566
▁other	-567
▁कह	-568
▁app	-569
▁te	-570
▁part	-571
ions	-572
▁जाए	-573
जा	-574
क्ति	-575
▁फिर	-576
▁सब	-577
pl	-578
du	-579
त्य	-580
▁what	-581
▁peop	-582
ence	-583
्ह	-584
▁पू	-585
्ञ	-586
▁बहुत	-587
स्थ	-588
▁अव	-589
ib	-590
ड़ा	-591
▁know	-592
▁out	-593
ये	-594
▁सर	-595
▁people	-596
▁रख	-597
क्	-598
▁tr	-599
▁लोगों	-600
मी	-601
▁cl	-602
▁सकता	-603
ations	-604
ोंने	-605
og	-606
nder	-607
ake	-608
ine	-609
ेत्र	-610
iz	-611
▁करें	-612
▁inc	-613
▁विक	-614
rit	-615
are	-616
▁तुम्ह	-617
▁day	-618
▁रहा	-619
▁said	-620
▁any	-621
चार	-622
ical	-623
ang	-624
कृ	-625
▁करता	-626
च्छ	-627
▁दि	-628
▁imp	-629
▁हुए	-630
▁सी	-631
au	-632
नि	-633
ire	-634
▁ev	-635
orm	-636
्यों	-637
ड़े	-638
▁बात	-639
▁act	-640
▁its	-641
▁क्षेत्र	-642
ace	-643
▁अपनी	-644
ere	-645
ign	-646
ident	-647
▁these	-648
र्थ	-649
▁राष्ट्र	-650
दी	-651
▁समय	-652
ens	-653
▁pr	-654
कों	-655
▁बी	-656
ड़ी	-657
ase	-658
act	-659
▁उन्हें	-660
ach	-661
च्च	-662
ूर्ण	-663
▁under	-664
▁देख	-665
▁my	-666
reat	-667
▁हि	-668
ail	-669
▁then	-670
वन	-671
▁acc	-672
▁दी	-673
▁sc	-674
▁मिल	-675
▁गु	-676
▁po	-677
श्च	-678
ber	-679
्रे	-680
▁देश	-681
▁उन्होंने	-682
ress	-683
▁work	-684
पति	-685
ings	-686
दान	-687
▁मान	-688
वाल	-689
▁new	-690
ial	-691
▁उसे	-692
▁उसके	-693
▁बाद	-694
▁tw	-695
ाप्त	-696
..	-697
▁some	-698
वे	-699
▁चु	-700
▁qu	-701
ath	-702
▁bec	-703
▁those	-704
ue	-705
ass	-706
र्श	-707
erv	-708
▁उत्	-709
▁दिन	-710
▁सू	-711
र्म	-712
ile	-713
ition	-714
ूस	-715
▁spe	-716
▁हुआ	-717
▁तरह	-718
ोट	-719
vers	-720
िका	-721
▁fo	-722
▁rel	-723
▁हू	-724
▁co	-725
▁year	-726
▁ओ	-727
▁af	-728
वर्	-729
वी	-730
▁tra	-731
ike	-732
▁time	-733
▁जै	-734
बर	-735
क़	-736
पर	-737
ade	-738
▁“	-739
हर	-740
▁जान	-741
▁off	-742
▁pre	-743
▁काम	-744
▁गई	-745
▁चाहिए	-746
vern	-747
▁about	-748
ater	-749
ेष	-750
▁only	-751
▁fe	-752
ck	-753
▁वाले	-754
ree	-755
ज्ञ	-756
▁होती	-757
झे	-758
hed	-759
्रा	-760
▁bel	-761
▁min	-762
▁ई	-763
▁govern	-764
ियम	-765
▁bo	-766
▁may	-767
▁ro	-768
स्था	-769
▁more	-770
▁lord	-771
▁होगा	-772
क्षा	-773
▁/	-774
िक्ष	-775
▁5	-776
▁सकते	-777
▁over	-778
ep	-779
▁count	-780
ities	-781
▁ख़	-782
▁कम	-783
▁would	-784
▁पै	-785
ुल	-786
▁like	-787
▁पहले	-788
▁सभी	-789
▁shall	-790
▁sub	-791
▁विश्व	-792
form	-793
▁राष्ट्रपति	-794
ौर	-795
lic	-796
ack	-797
▁होने	-798
ory	-799
▁”	-800
चना	-801
▁संबंध	-802
भि	-803
▁सह	-804
we	-805
▁em	-806
▁should	-807
ise	-808
फ़	-809
प्र	-810
ुदा	-811
▁rec	-812
fore	-813
▁inst	-814
▁पी	-815
ious	-816
ेल	-817
ोल	-818
एं	-819
ild	-820
यों	-821
▁cent	-822
▁reg	-823
▁4	-824
▁allah	-825
▁वर्ष	-826
▁ज़	-827
▁prov	-828
ational	-829
ound	-830
ted	-831
▁अंत	-832
▁हमारे	-833
लाह	-834
धान	-835
िश	-836
ub	-837
ject	-838
te	-839
्रीय	-840
ite	-841
▁आय	-842
▁लि	-843
▁two	-844
भाव	-845
▁how	-846
▁into	-847
▁cons	-848
▁rem	-849
ाइ	-850
▁प्राप्त	-851
▁दु	-852
▁mar	-853
▁गए	-854
त्व	-855
▁हमने	-856
▁made	-857
श्य	-858
▁god	-859
▁सरकार	-860
urn	-861
टी	-862
▁ऊ	-863
वं	-864
▁पास	-865
cial	-866
ोक	-867
▁after	-868
row	-869
▁अब	-870
हां	-871
किन	-872
rib	-873
▁say	-874
▁इसके	-875
▁ना	-876
सर	-877
tern	-878
▁उनकी	-879
▁sy	-880
पूर्ण	-881
टा	-882
ram	-883
velop	-884
ces	-885
करण	-886
▁फ़	-887
▁अन्य	-888
ric	-889
sel	-890
▁सम्	-891
▁such	-892
तीय	-893
con	-894
ife	-895
▁ear	-896
▁झ	-897
ful	-898
ank	-899
▁प्रकार	-900
▁form	-901
▁जाने	-902
▁मुझे	-903
▁लेकिन	-904
ीय	-905
ward	-906
▁अल्	-907
▁बे	-908
गत	-909
▁बि	-910
▁लग	-911
यी	-912
way	-913
▁develop	-914
▁fir	-915
old	-916
▁कारण	-917
▁साम	-918
▁बढ़	-919
▁exp	-920
हाँ	-921
ोजना	-922
वर	-923
▁bet	-924
▁प्रा	-925
▁government	-926
▁rep	-927
स्ता	-928
▁mo	-929
▁des	-930
टर	-931
▁नाम	-932
▁her	-933
ied	-934
ग्र	-935
▁bl	-936
जन	-937
▁president	-938
iff	-939
ां	-940
धि	-941
▁state	-942
ंप	-943
▁बु	-944
ause	-945
▁gu	-946
▁ओर	-947
▁विकास	-948
▁बद	-949
द्योग	-950
▁she	-951
lect	-952
ren	-953
cess	-954
▁ent	-955
▁200	-956
▁दूस	-957
▁हुई	-958
िप	-959
▁उत्प	-960
tain	-961
sh	-962
ूम	-963
▁कृ	-964
तिक	-965
▁pers	-966
▁निक	-967
ual	-968
▁most	-969
त्म	-970
चा	-971
िला	-972
▁अच्छ	-973
न्त	-974
▁किए	-975
ved	-976
▁नी	-977
▁एवं	-978
▁world	-979
▁क़	-980
▁fl	-981
ution	-982
ments	-983
▁every	-984
▁लगा	-985
तर	-986
▁ob	-987
▁भारतीय	-988
माण	-989
▁than	-990
▁mu	-991
▁व्या	-992
▁serv	-993
ates	-994
iss	-995
ंक	-996
▁good	-997
▁trans	-998
▁could	-999
ाली	-1000
▁201	-1001
ors	-1002
▁हों	-1003
▁right	-1004
ोध	-1005
वार	-1006
▁pra	-1007
िति	-1008
▁अल्लाह	-1009
▁हर	-1010
▁diff	-1011
▁bh	-1012
ific	-1013
ध्य	-1014
▁gen	-1015
▁होते	-1016
ink	-1017
▁many	-1018
वल	-1019
▁जिन	-1020
rough	-1021
▁produ	-1022
ph	-1023
▁जाती	-1024
▁dec	-1025
ास्त	-1026
▁great	-1027
धा	-1028
▁बन	-1029
▁मूल	-1030
▁ac	-1031
▁यदि	-1032
्स	-1033
▁very	-1034
▁ऐसा	-1035
▁call	-1036
▁used	-1037
▁through	-1038
▁life	-1039
ts	-1040
▁pol	-1041
सार	-1042
दार	-1043
▁रही	-1044
▁व्यक्ति	-1045
ily	-1046
▁hig	-1047
▁ठ	-1048
▁राज्य	-1049
ेंगे	-1050
लि	-1051
▁indian	-1052
▁country	-1053
▁विशेष	-1054
ati	-1055
बी	-1056
▁see	-1057
▁again	-1058
▁first	-1059
▁आव	-1060
▁सर्	-1061
ght	-1062
मे	-1063
▁जन	-1064
▁col	-1065
▁inv	-1066
▁उपयोग	-1067
▁मुख	-1068
llow	-1069
▁समझ	-1070
ूर्व	-1071
▁dep	-1072
uth	-1073
▁op	-1074
▁now	-1075
wn	-1076
क्रम	-1077
मु	-1078
ced	-1079
eth	-1080
तः	-1081
स्ट	-1082
own	-1083
cy	-1084
▁ed	-1085
▁स्त	-1086
▁well	-1087
▁‘	-1088
▁जीवन	-1089
ia	-1090
▁बारे	-1091
arm	-1092
▁ke	-1093
cept	-1094
▁ph	-1095
pe	-1096
▁6	-1097
uring	-1098
ons	-1099
▁उसकी	-1100
▁चल	-1101
▁दोनों	-1102
िये	-1103
▁get	-1104
▁आज	-1105
ower	-1106
▁बार	-1107
▁add	-1108
▁शिक्ष	-1109
गार	-1110
▁att	-1111
तन	-1112
▁उसने	-1113
▁set	-1114
▁where	-1115
ents	-1116
other	-1117
▁ग्र	-1118
▁भाग	-1119
▁belie	-1120
▁पहु	-1121
ning	-1122
बा	-1123
▁way	-1124
दर्श	-1125
ष्ठ	-1126
ोर	-1127
▁यु	-1128
लय	-1129
▁वै	-1130
oy	-1131
पी	-1132
ular	-1133
▁लिया	-1134
▁being	-1135
me	-1136
201	-1137
िट	-1138
▁even	-1139
▁हा	-1140
▁giv	-1141
ble	-1142
▁ता	-1143
▁बीच	-1144
्यू	-1145
तों	-1146
▁क्यों	-1147
▁before	-1148
ism	-1149
काश	-1150
कता	-1151
▁समा	-1152
ative	-1153
▁did	-1154
ित्र	-1155
▁cre	-1156
ची	-1157
यन	-1158
▁ची	-1159
uc	-1160
hi	-1161
▁br	-1162
ख्या	-1163
लों	-1164
als	-1165
ange	-1166
▁par	-1167
oth	-1168
▁here	-1169
▁resp	-1170
gan	-1171
▁0	-1172
▁just	-1173
▁ऐसे	-1174
▁prog	-1175
▁सबसे	-1176
लग	-1177
▁ass	-1178
aj	-1179
▁करो	-1180
▁num	-1181
ural	-1182
हाय	-1183
▁प्रदान	-1184
stem	-1185
ating	-1186
led	-1187
▁अपना	-1188
व्य	-1189
▁उत्त	-1190
▁आवश्य	-1191
शी	-1192
li	-1193
▁bu	-1194
olog	-1195
ness	-1196
▁ढ	-1197
▁make	-1198
▁thou	-1199
▁रु	-1200
वेश	-1201
िल्	-1202
▁hel	-1203
डी	-1204
ेक	-1205
▁years	-1206
▁gener	-1207
▁अगर	-1208
▁आधार	-1209
▁need	-1210
वाद	-1211
eng	-1212
तु	-1213
▁&	-1214
▁7	-1215
▁eff	-1216
erm	-1217
its	-1218
▁मौ	-1219
▁[	-1220
▁dist	-1221
दे	-1222
▁सद	-1223
▁सो	-1224
▁bas	-1225
शा	-1226
▁मन	-1227
▁श्री	-1228
ियां	-1229
▁import	-1230
▁पर्	-1231
▁सेवा	-1232
▁system	-1233
▁इसे	-1234
धिक	-1235
ft	-1236
▁क्र	-1237
मत	-1238
▁let	-1239
▁ref	-1240
ple	-1241
▁कै	-1242
ख़	-1243
▁हूँ	-1244
▁sm	-1245
▁अस	-1246
▁जाना	-1247
षण	-1248
▁follow	-1249
▁जैसे	-1250
▁18	-1251
▁8	-1252
▁खा	-1253
▁खु	-1254
▁pos	-1255
▁निय	-1256
ween	-1257
▁स्था	-1258
यु	-1259
▁la	-1260
▁हमें	-1261
les	-1262
▁वाला	-1263
ार्थ	-1264
▁सहाय	-1265
▁child	-1266
▁between	-1267
▁writ	-1268
▁वा	-1269
▁प्रयोग	-1270
कारी	-1271
चे	-1272
निक	-1273
ोह	-1274
▁ins	-1275
▁lit	-1276
ised	-1277
▁pub	-1278
िम	-1279
ha	-1280
फल	-1281
int	-1282
▁supp	-1283
▁use	-1284
).	-1285
▁बै	-1286
ility	-1287
्ल	-1288
ty	-1289
▁केवल	-1290
▁cour	-1291
the	-1292
ood	-1293
▁person	-1294
▁उत्पाद	-1295
▁val	-1296
▁mem	-1297
क्षण	-1298
▁वाली	-1299
▁national	-1300
िंग	-1301
▁help	-1302
▁ख़ुदा	-1303
ible	-1304
लिए	-1305
▁उपल	-1306
▁वास्त	-1307
▁मेरे	-1308
▁fin	-1309
▁जाते	-1310
▁mod	-1311
ister	-1312
▁विचार	-1313
▁उठ	-1314
▁var	-1315
▁भे	-1316
ंभ	-1317
▁development	-1318
eed	-1319
▁दिखा	-1320
▁महत्व	-1321
तना	-1322
ज्ञान	-1323
िता	-1324
▁उपलब्	-1325
षा	-1326
day	-1327
▁स्थान	-1328
▁during	-1329
ices	-1330
▁mon	-1331
▁sign	-1332
▁const	-1333
ाला	-1334
ून	-1335
▁करे	-1336
▁fu	-1337
▁must	-1338
एँ	-1339
▁ret	-1340
▁down	-1341
▁inf	-1342
▁उनका	-1343
▁conf	-1344
hes	-1345
▁शुर	-1346
▁differe	-1347
▁char	-1348
▁book	-1349
▁pur	-1350
हित	-1351
▁tak	-1352
▁back	-1353
▁ऐसी	-1354
▁योजना	-1355
▁मार्	-1356
▁hand	-1357
▁दृ	-1358
ature	-1359
▁gra	-1360
▁av	-1361
▁कई	-1362
ax	-1363
▁take	-1364
▁देने	-1365
▁want	-1366
त्रा	-1367
chn	-1368
▁प्रत्य	-1369
▁sec	-1370
क्रिया	-1371
oc	-1372
self	-1373
▁come	-1374
यास	-1375
▁because	-1376
ided	-1377
ures	-1378
ving	-1379
▁हे	-1380
ages	-1381
▁हमारी	-1382
ting	-1383
▁आर	-1384
िस	-1385
▁end	-1386
्ड	-1387
▁उसका	-1388
भिन्न	-1389
▁water	-1390
round	-1391
▁माल	-1392
▁lar	-1393
▁हूं	-1394
ob	-1395
ंस	-1396
ick	-1397
▁hum	-1398
▁जिसमें	-1399
▁vis	-1400
▁cer	-1401
▁requ	-1402
▁प्रश	-1403
▁तुम्हारे	-1404
▁mat	-1405
▁व्यव	-1406
▁ऑ	-1407
रों	-1408
▁बच्च	-1409
▁car	-1410
xt	-1411
▁अथ	-1412
▁पूर्व	-1413
पा	-1414
der	-1415
▁जाएगा	-1416
ताओं	-1417
▁जर	-1418
▁educ	-1419
निया	-1420
▁निश्च	-1421
▁techn	-1422
▁dire	-1423
▁न्या	-1424
ever	-1425
चित	-1426
▁छोट	-1427
▁सकती	-1428
▁:	-1429
पित	-1430
▁def	-1431
ves	-1432
▁gl	-1433
▁high	-1434
▁indeed	-1435
▁लिख	-1436
भाग	-1437
▁som	-1438
▁उपलब्ध	-1439
▁fore	-1440
▁अर्थ	-1441
),	-1442
▁पार	-1443
ather	-1444
get	-1445
▁hind	-1446
▁place	-1447
▁रब	-1448
▁process	-1449
▁बड़ा	-1450
▁equ	-1451
शन	-1452
कर्	-1453
रिक	-1454
ited	-1455
▁long	-1456
द्र	-1457
ten	-1458
▁sur	-1459
▁शिक्षा	-1460
▁10	-1461
भव	-1462
▁ext	-1463
▁माम	-1464
▁found	-1465
▁mus	-1466
▁organ	-1467
▁इसलिए	-1468
ave	-1469
▁cor	-1470
▁तब	-1471
▁fam	-1472
▁eng	-1473
▁करती	-1474
▁stud	-1475
▁सामान	-1476
▁inform	-1477
▁तै	-1478
द्योगिक	-1479
हार	-1480
▁अथवा	-1481
▁राष्ट्रीय	-1482
lud	-1483
ूत	-1484
ज़ा	-1485
air	-1486
▁कंप	-1487
ute	-1488
▁कभी	-1489
▁indust	-1490
▁does	-1491
▁main	-1492
▁among	-1493
▁dev	-1494
▁own	-1495
▁sure	-1496
ries	-1497
▁शाम	-1498
ुट	-1499
▁व्याप	-1500
वरण	-1501
▁number	-1502
▁दौर	-1503
मिक	-1504
▁mess	-1505
▁बड़ी	-1506
▁start	-1507
000	-1508
▁bank	-1509
▁पैदा	-1510
वान	-1511
काल	-1512
▁मै	-1513
▁mark	-1514
▁प्रण	-1515
ody	-1516
्यान	-1517
सान	-1518
alth	-1519
कृत	-1520
▁9	-1521
ाइल	-1522
▁account	-1523
▁power	-1524
▁both	-1525
▁प्रभाव	-1526
जे	-1527
ूद	-1528
▁विभिन्न	-1529
▁art	-1530
ंत्री	-1531
▁विष	-1532
▁अधिन	-1533
▁बैं	-1534
▁प्रे	-1535
▁cap	-1536
ोर्	-1537
▁वृ	-1538
▁अभ	-1539
▁स्वा	-1540
▁trad	-1541
tle	-1542
ब्द	-1543
▁छो	-1544
श्व	-1545
नेक	-1546
▁given	-1547
▁अधिकार	-1548
ished	-1549
▁होना	-1550
▁name	-1551
read	-1552
त्मक	-1553
ix	-1554
▁compan	-1555
▁दर	-1556
▁med	-1557
ूह	-1558
▁गा	-1559
▁इसमें	-1560
▁भर	-1561
ered	-1562
▁adv	-1563
▁प्रक्रिया	-1564
▁अधिनियम	-1565
▁inter	-1566
▁लोक	-1567
ंट	-1568
▁बस	-1569
ys	-1570
ared	-1571
conom	-1572
▁each	-1573
▁स्प	-1574
▁nor	-1575
▁pass	-1576
▁स्थिति	-1577
कृति	-1578
▁del	-1579
▁संप	-1580
▁same	-1581
▁इसका	-1582
सं	-1583
▁uni	-1584
▁called	-1585
▁grow	-1586
▁different	-1587
▁इसी	-1588
▁open	-1589
ants	-1590
▁against	-1591
▁sing	-1592
▁look	-1593
यार	-1594
▁che	-1595
ya	-1596
▁केंद	-1597
▁वस्त	-1598
▁जु	-1599
▁prom	-1600
मुख	-1601
▁occ	-1602
▁another	-1603
▁program	-1604
▁instit	-1605
ission	-1606
त्ता	-1607
▁ईमान	-1608
▁अंग	-1609
▁तुम्हें	-1610
▁रस	-1611
▁शु	-1612
▁while	-1613
▁today	-1614
▁पुर	-1615
ctor	-1616
.201	-1617
arn	-1618
▁महा	-1619
▁public	-1620
ond	-1621
▁अभि	-1622
ंब	-1623
▁क्योंकि	-1624
ital	-1625
▁हाथ	-1626
▁present	-1627
▁three	-1628
▁econom	-1629
▁ver	-1630
फी	-1631
▁मुख्य	-1632
ides	-1633
ety	-1634
tc	-1635
युक्त	-1636
ash	-1637
ana	-1638
ruct	-1639
▁turn	-1640
▁जिसे	-1641
▁earth	-1642
▁cur	-1643
ps	-1644
arch	-1645
▁loc	-1646
▁det	-1647
▁मेरी	-1648
्यालय	-1649
▁दौरान	-1650
▁योग	-1651
त्या	-1652
ral	-1653
▁सहायता	-1654
▁lead	-1655
एस	-1656
▁आपको	-1657
स्थान	-1658
▁dem	-1659
ोप	-1660
▁x	-1661
▁शामिल	-1662
▁ce	-1663
▁वही	-1664
▁नई	-1665
▁show	-1666
▁यहाँ	-1667
▁str	-1668
ata	-1669
iness	-1670
▁वित	-1671
▁fac	-1672
न्द्र	-1673
▁information	-1674
▁सूचना	-1675
ल्प	-1676
▁play	-1677
ोड	-1678
not	-1679
▁होगी	-1680
▁ple	-1681
ोजन	-1682
▁वास्तव	-1683
▁came	-1684
▁दूसरे	-1685
▁पं	-1686
ुक	-1687
▁upon	-1688
▁cle	-1689
...	-1690
▁देता	-1691
▁minister	-1692
▁डि	-1693
▁partic	-1694
णी	-1695
▁sim	-1696
▁बता	-1697
▁उद्	-1698
▁read	-1699
▁भूम	-1700
▁इससे	-1701
▁संख्या	-1702
▁ty	-1703
▁give	-1704
▁संबंधित	-1705
▁small	-1706
▁आगे	-1707
।"	-1708
▁20	-1709
▁अलग	-1710
धन	-1711
▁15	-1712
ctions	-1713
ेट	-1714
▁wind	-1715
▁अवसर	-1716
▁उच्च	-1717
▁संग	-1718
▁दा	-1719
ality	-1720
▁disc	-1721
दन	-1722
▁important	-1723
▁सुर	-1724
▁unt	-1725
▁commun	-1726
▁स्ट	-1727
▁includ	-1728
▁ते	-1729
ives	-1730
▁cro	-1731
▁wom	-1732
ined	-1733
द्धि	-1734
इट	-1735
▁अति	-1736
ुष	-1737
न्तु	-1738
ef	-1739
▁पद	-1740
ern	-1741
ists	-1742
▁प्रकाश	-1743
यं	-1744
▁ऋ	-1745
▁होंगे	-1746
ेह	-1747
iew	-1748
ters	-1749
▁निर्माण	-1750
▁ask	-1751
▁अनेक	-1752
▁गये	-1753
▁12	-1754
▁bus	-1755
▁सामान्य	-1756
▁बैठ	-1757
▁पत्र	-1758
ime	-1759
ale	-1760
ian	-1761
ouse	-1762
▁away	-1763
जार	-1764
ne	-1765
ology	-1766
▁est	-1767
हत	-1768
▁शुरू	-1769
▁ज्ञ	-1770
▁महत्वपूर्ण	-1771
▁(1	-1772
▁sin	-1773
▁पुन	-1774
▁अंतर	-1775
▁going	-1776
▁आया	-1777
▁word	-1778
क्ट	-1779
ired	-1780
▁यहां	-1781
▁मद	-1782
▁उत्तर	-1783
▁तैयार	-1784
▁तीन	-1785
▁sent	-1786
▁पड़	-1787
▁जल	-1788
▁sou	-1789
ven	-1790
ict	-1791
▁sch	-1792
ष्टि	-1793
र्क	-1794
▁education	-1795
▁etc	-1796
▁fact	-1797
▁लाभ	-1798
▁दूर	-1799
angu	-1800
▁certain	-1801
▁ser	-1802
▁think	-1803
तम	-1804
▁mah	-1805
▁avail	-1806
▁उसी	-1807
nce	-1808
तान	-1809
▁tem	-1810
▁भाषा	-1811
▁comple	-1812
▁घर	-1813
▁times	-1814
▁pun	-1815
स्व	-1816
▁आई	-1817
▁पश्च	-1818
▁mak	-1819
gg	-1820
▁div	-1821
▁संस्	-1822
wards	-1823
▁adm	-1824
▁चीज़	-1825
▁बड़े	-1826
▁मार्ग	-1827
ision	-1828
▁project	-1829
▁sche	-1830
▁langu	-1831
▁aff	-1832
▁बाहर	-1833
▁पहुंच	-1834
▁means	-1835
▁पता	-1836
नेवाल	-1837
▁conc	-1838
▁sci	-1839
man	-1840
▁ब्र	-1841
▁spec	-1842
▁pay	-1843
iod	-1844
▁cou	-1845
▁प्रत्येक	-1846
▁much	-1847
▁यही	-1848
▁stand	-1849
इन	-1850
▁रसूल	-1851
▁return	-1852
▁अं	-1853
ship	-1854
▁पि	-1855
▁leg	-1856
▁cult	-1857
▁परिवर्	-1858
▁last	-1859
▁human	-1860
▁di	-1861
▁करके	-1862
ually	-1863
err	-1864
▁हेतु	-1865
▁कहते	-1866
▁आपके	-1867
▁gr	-1868
▁known	-1869
▁हाल	-1870
har	-1871
▁dr	-1872
ित्व	-1873
▁grou	-1874
ics	-1875
▁कार्यक्रम	-1876
ms	-1877
erest	-1878
▁land	-1879
▁सदस	-1880
▁अध्य	-1881
▁sit	-1882
▁contin	-1883
▁cond	-1884
▁happ	-1885
▁ele	-1886
▁बनाने	-1887
▁list	-1888
धी	-1889
ention	-1890
bers	-1891
वाह	-1892
▁गयी	-1893
su	-1894
▁शब्द	-1895
▁term	-1896
▁ben	-1897
▁कर्म	-1898
ात	-1899
▁प्रौ	-1900
▁sk	-1901
asht	-1902
▁बल्	-1903
▁interest	-1904
▁अर्	-1905
▁offic	-1906
▁संर	-1907
▁स्वी	-1908
▁men	-1909
▁period	-1910
ध्यम	-1911
षि	-1912
▁अनुस	-1913
▁अत्य	-1914
सि	-1915
riend	-1916
▁चार	-1917
▁कान	-1918
भग	-1919
▁परवर	-1920
▁मैंने	-1921
▁law	-1922
ग्रह	-1923
्यादा	-1924
ething	-1925
▁cannot	-1926
▁अनुसार	-1927
टना	-1928
▁आदि	-1929
▁अग	-1930
शि	-1931
ाई	-1932
▁exam	-1933
▁पानी	-1934
कट	-1935
▁प्रधान	-1936
ove	-1937
▁pri	-1938
▁परवरदि	-1939
▁intern	-1940
▁mer	-1941
ंतु	-1942
ाने	-1943
ron	-1944
▁best	-1945
▁rece	-1946
▁छोड़	-1947
▁something	-1948
तंत्र	-1949
ंज	-1950
ूट	-1951
▁commit	-1952
▁shri	-1953
▁चाहते	-1954
orts	-1955
▁bro	-1956
ee	-1957
▁प्रयास	-1958
▁शै	-1959
lish	-1960
▁find	-1961
▁पुस्त	-1962
▁परवरदिगार	-1963
्टी	-1964
▁incre	-1965
▁गुण	-1966
▁truth	-1967
▁विषय	-1968
▁children	-1969
हास	-1970
▁friend	-1971
ploy	-1972
यर	-1973
▁डा	-1974
▁पूरा	-1975
आई	-1976
▁उससे	-1977
▁बो	-1978
rap	-1979
▁शी	-1980
▁oper	-1981
▁सामने	-1982
▁डाल	-1983
▁पूरी	-1984
ग़	-1985
▁आवश्यकता	-1986
▁वस्तु	-1987
▁रो	-1988
esh	-1989
▁गति	-1990
▁प्रमुख	-1991
ियाँ	-1992
▁social	-1993
▁उद्योग	-1994
ीक	-1995
▁रोग	-1996
▁soci	-1997
▁opp	-1998
▁four	-1999
▁fun	-2000
ूरी	-2001
ized	-2002
गम	-2003
▁sw	-2004
ways	-2005
▁prof	-2006
▁199	-2007
्ते	-2008
▁prop	-2009
▁sl	-2010
▁आस	-2011
▁समाज	-2012
▁move	-2013
▁लगभग	-2014
▁appro	-2015
▁meet	-2016
▁बदल	-2017
त्ति	-2018
▁भवन	-2019
▁रंग	-2020
▁old	-2021
▁चला	-2022
टक	-2023
▁house	-2024
▁सौ	-2025
ines	-2026
धारण	-2027
up	-2028
▁रुप	-2029
▁रे	-2030
▁never	-2031
▁proble	-2032
▁heav	-2033
स्या	-2034
▁प्रौद्योगिक	-2035
प्त	-2036
▁लिये	-2037
ासन	-2038
▁देते	-2039
▁नियम	-2040
▁कल	-2041
ption	-2042
ains	-2043
▁file	-2044
▁चि	-2045
▁पढ़	-2046
▁poss	-2047
ars	-2048
▁अनुम	-2049
▁auth	-2050
▁health	-2051
ified	-2052
▁मो	-2053
▁surely	-2054
▁मी	-2055
▁relig	-2056
▁झु	-2057
▁सर्व	-2058
▁plan	-2059
erg	-2060
▁without	-2061
▁सुन	-2062
विद	-2063
▁ca	-2064
ived	-2065
▁polic	-2066
▁उनसे	-2067
▁पूर्ण	-2068
▁11	-2069
सम	-2070
▁आद	-2071
ected	-2072
▁large	-2073
▁ताकि	-2074
▁धर्म	-2075
▁बल्कि	-2076
▁prot	-2077
▁head	-2078
▁univers	-2079
▁देखा	-2080
ालन	-2081
▁जिन्ह	-2082
ool	-2083
▁जारी	-2084
▁'%	-2085
▁ली	-2086
bs	-2087
▁श्र	-2088
ination	-2089
ेर	-2090
.0	-2091
वास	-2092
ालय	-2093
ai	-2094
▁body	-2095
▁आम	-2096
▁लगे	-2097
▁sol	-2098
ield	-2099
▁सफल	-2100
▁मत	-2101
▁window	-2102
▁believe	-2103
ark	-2104
▁काफी	-2105
▁निश्चय	-2106
▁support	-2107
▁196	-2108
▁१	-2109
▁रखा	-2110
्म	-2111
रूप	-2112
▁कौ	-2113
ense	-2114
▁अच्छा	-2115
▁however	-2116
▁applic	-2117
विधा	-2118
▁–	-2119
ici	-2120
ii	-2121
▁फै	-2122
▁various	-2123
▁स्पष्ट	-2124
ried	-2125
▁might	-2126
ma	-2127
▁क्षेत्रों	-2128
धे	-2129
▁जग	-2130
▁rese	-2131
▁order	-2132
▁गो	-2133
▁ye	-2134
alk	-2135
▁कोश	-2136
▁cal	-2137
▁ध्यान	-2138
▁नीति	-2139
ov	-2140
छे	-2141
amp	-2142
lf	-2143
▁स्तर	-2144
▁बैंक	-2145
▁व्यक्त	-2146
▁prin	-2147
▁section	-2148
▁maj	-2149
क्षित	-2150
▁author	-2151
▁dra	-2152
▁विश्वास	-2153
र्थिक	-2154
▁साल	-2155
▁परिण	-2156
▁बनाया	-2157
▁स्वयं	-2158
▁service	-2159
▁_	-2160
▁समस्या	-2161
▁contro	-2162
▁become	-2163
▁>	-2164
▁विर	-2165
▁माध्यम	-2166
▁सके	-2167
▁things	-2168
स्थित	-2169
▁employ	-2170
▁जहां	-2171
stand	-2172
▁met	-2173
▁ऊपर	-2174
▁left	-2175
ize	-2176
संद	-2177
▁ut	-2178
सल	-2179
▁संस्थान	-2180
ूं	-2181
▁मदद	-2182
म्प	-2183
▁शि	-2184
ूँ	-2185
▁done	-2186
जिक	-2187
ining	-2188
▁direct	-2189
▁taken	-2190
▁ide	-2191
ner	-2192
ज्य	-2193
ियोजना	-2194
▁business	-2195
ss	-2196
ृत	-2197
▁कृषि	-2198
टन	-2199
▁कला	-2200
▁invest	-2201
▁करेंगे	-2202
▁जिसके	-2203
ection	-2204
▁hist	-2205
शत	-2206
▁tru	-2207
▁निम्	-2208
▁too	-2209
▁स्क	-2210
▁succ	-2211
wor	-2212
▁vill	-2213
▁z	-2214
▁शरी	-2215
मंत्री	-2216
▁वी	-2217
द्व	-2218
टे	-2219
▁put	-2220
ledge	-2221
▁case	-2222
▁पृ	-2223
ins	-2224
▁food	-2225
▁rest	-2226
ण्ड	-2227
▁ज्यादा	-2228
▁केंद्र	-2229
▁याद	-2230
▁पहुँ	-2231
▁परियोजना	-2232
avan	-2233
▁हिन्द	-2234
▁heart	-2235
ियो	-2236
▁tre	-2237
▁poet	-2238
▁created	-2239
तिहास	-2240
▁वित्त	-2241
▁इसकी	-2242
less	-2243
▁activ	-2244
▁proper	-2245
र्य	-2246
हन	-2247
▁due	-2248
▁समान	-2249
▁level	-2250
▁चुन	-2251
ament	-2252
▁शक्ति	-2253
▁सुधार	-2254
▁हिस्	-2255
▁प्रार	-2256
▁pop	-2257
▁therefore	-2258
▁à	-2259
▁market	-2260
▁conn	-2261
▁exper	-2262
▁अभी	-2263
▁कवि	-2264
▁दर्श	-2265
ration	-2266
▁beh	-2267
▁संस्था	-2268
▁परिणाम	-2269
▁धारा	-2270
▁raj	-2271
selves	-2272
▁quest	-2273
▁दुनिया	-2274
▁effect	-2275
मित	-2276
ases	-2277
▁प्रौद्योगिकी	-2278
▁fil	-2279
▁देना	-2280
cond	-2281
▁ठीक	-2282
मता	-2283
hip	-2284
▁कठ	-2285
▁जमा	-2286
▁समूह	-2287
प्	-2288
▁bra	-2289
▁keep	-2290
▁central	-2291
ंह	-2292
▁सुविधा	-2293
ng	-2294
▁मज	-2295
ock	-2296
▁jo	-2297
शील	-2298
▁days	-2299
ंदर	-2300
र्ष	-2301
▁ऋण	-2302
ूर्ति	-2303
▁तरफ	-2304
ased	-2305
▁real	-2306
af	-2307
▁desc	-2308
bel	-2309
▁company	-2310
▁ज्ञान	-2311
ाया	-2312
वों	-2313
▁women	-2314
▁constit	-2315
दारी	-2316
▁बरा	-2317
▁जाएँ	-2318
विध	-2319
▁benef	-2320
▁available	-2321
▁ती	-2322
▁जानकारी	-2323
▁court	-2324
▁उनमें	-2325
of	-2326
▁विदेश	-2327
▁आर्थिक	-2328
error	-2329
▁ann	-2330
▁25	-2331
▁success	-2332
▁build	-2333
▁प्रणाली	-2334
reed	-2335
▁स्थित	-2336
नीय	-2337
mb	-2338
▁प्रो	-2339
▁विस्त	-2340
▁प्रदर्श	-2341
▁rev	-2342
माजिक	-2343
▁तरी	-2344
▁मूल्य	-2345
▁सारे	-2346
स्प	-2347
▁knowledge	-2348
▁वेब	-2349
ामी	-2350
▁विद्य	-2351
▁निम्न	-2352
भर	-2353
ency	-2354
▁।	-2355
ैर	-2356
▁नीचे	-2357
▁न्याया	-2358
▁कॉ	-2359
ara	-2360
▁fa	-2361
ृत्य	-2362
▁special	-2363
▁eas	-2364
▁change	-2365
▁prev	-2366
हरा	-2367
बे	-2368
ari	-2369
▁sat	-2370
▁पक्ष	-2371
▁विंड	-2372
्ला	-2373
▁बिना	-2374
▁area	-2375
▁सूची	-2376
▁त्र	-2377
ract	-2378
▁जिसका	-2379
-1	-2380
▁मंत्र	-2381
▁सामाजिक	-2382
▁भाव	-2383
▁den	-2384
▁jud	-2385
atic	-2386
▁प्रतिशत	-2387
na	-2388
▁school	-2389
▁डर	-2390
▁product	-2391
▁संघ	-2392
िल्ली	-2393
▁common	-2394
▁गर्	-2395
▁liter	-2396
बन्	-2397
▁16	-2398
▁cong	-2399
▁ap	-2400
▁प्रस्त	-2401
▁family	-2402
▁language	-2403
ware	-2404
▁सीमा	-2405
med	-2406
▁पे	-2407
▁month	-2408
ex	-2409
utions	-2410
▁accord	-2411
▁प्रबंध	-2412
ंख	-2413
▁kind	-2414
▁होकर	-2415
▁second	-2416
▁services	-2417
▁rasht	-2418
जूद	-2419
▁अतः	-2420
▁technology	-2421
▁पिछ	-2422
ret	-2423
ither	-2424
por	-2425
▁मंद	-2426
▁बदला	-2427
▁मानव	-2428
▁लड़	-2429
▁class	-2430
▁आवश्यक	-2431
▁डे	-2432
▁उत्पादन	-2433
▁bhavan	-2434
▁1.	-2435
▁लेख	-2436
ेद	-2437
बाद	-2438
▁estab	-2439
▁view	-2440
▁<	-2441
inal	-2442
▁amount	-2443
पि	-2444
rapati	-2445
▁chang	-2446
ls	-2447
▁states	-2448
rought	-2449
पुर	-2450
▁व्यापार	-2451
▁उनको	-2452
▁पर्या	-2453
▁bi	-2454
▁address	-2455
▁195	-2456
▁air	-2457
▁elect	-2458
र्द	-2459
▁don	-2460
▁मेरा	-2461
▁पाठ	-2462
▁सहयोग	-2463
▁farm	-2464
▁दिए	-2465
पन	-2466
osed	-2467
▁जगह	-2468
▁result	-2469
▁little	-2470
lim	-2471
भार	-2472
▁group	-2473
▁ur	-2474
▁आने	-2475
धारित	-2476
▁accept	-2477
▁उद्देश	-2478
र्फ	-2479
▁thus	-2480
▁मिला	-2481
्रो	-2482
▁post	-2483
▁clear	-2484
▁net	-2485
▁सही	-2486
▁war	-2487
▁{	-2488
▁यात्रा	-2489
▁select	-2490
itions	-2491
lished	-2492
▁polit	-2493
▁बेह	-2494
▁economic	-2495
▁शा	-2496
ider	-2497
▁उसमें	-2498
▁lim	-2499
ूरत	-2500
▁थीं	-2501
▁सार	-2502
par	-2503
▁अन्त	-2504
▁major	-2505
cu	-2506
▁within	-2507
वृ	-2508
▁लेकर	-2509
▁शरीर	-2510
ठन	-2511
▁ri	-2512
▁विश्वविद	-2513
▁बन्द	-2514
ंजी	-2515
▁rashtrapati	-2516
▁society	-2517
han	-2518
▁mind	-2519
▁bir	-2520
iving	-2521
ough	-2522
▁उल्	-2523
▁ey	-2524
न्म	-2525
▁स्वीकार	-2526
▁comput	-2527
▁प्रधानमंत्री	-2528
▁depart	-2529
▁gand	-2530
thing	-2531
ury	-2532
बार	-2533
▁बराबर	-2534
▁फ़ाइल	-2535
▁policy	-2536
लेख	-2537
▁गिर	-2538
्यता	-2539
▁नियंत्र	-2540
ues	-2541
▁पीछे	-2542
लो	-2543
▁charact	-2544
▁विज्ञान	-2545
ष्ण	-2546
हरण	-2547
तियों	-2548
षित	-2549
work	-2550
▁देशों	-2551
बद्ध	-2552
▁fund	-2553
▁सम्म	-2554
ेशा	-2555
▁fear	-2556
▁income	-2557
▁rul	-2558
पना	-2559
▁towards	-2560
ulation	-2561
ances	-2562
ताब	-2563
▁अच्छी	-2564
▁संदेश	-2565
ructure	-2566
▁always	-2567
▁जनता	-2568
▁members	-2569
डर	-2570
▁लौ	-2571
ठला	-2572
कृतिक	-2573
▁आए	-2574
ुग	-2575
ेशक	-2576
▁bring	-2577
▁निवेश	-2578
ief	-2579
▁non	-2580
▁कैसे	-2581
to	-2582
▁expl	-2583
ricult	-2584
ंधी	-2585
▁dest	-2586
▁data	-2587
▁मध्य	-2588
▁allow	-2589
▁enter	-2590
▁परिवार	-2591
▁समर्थ	-2592
▁except	-2593
▁object	-2594
जों	-2595
▁आध	-2596
▁वर्ग	-2597
und	-2598
▁rs	-2599
iron	-2600
पत्र	-2601
▁pat	-2602
▁less	-2603
▁दक्ष	-2604
▁मि	-2605
हित्य	-2606
▁agricult	-2607
▁परी	-2608
सित	-2609
▁region	-2610
▁far	-2611
▁run	-2612
▁colle	-2613
▁परिवर्तन	-2614
▁research	-2615
▁better	-2616
ization	-2617
▁around	-2618
▁value	-2619
▁नए	-2620
▁अंतर्	-2621
▁विभाग	-2622
▁सिद्ध	-2623
ium	-2624
▁why	-2625
▁करनेवाल	-2626
चान	-2627
आर	-2628
रती	-2629
मीन	-2630
▁194	-2631
▁दिल	-2632
ternal	-2633
▁करेगा	-2634
ोर्ट	-2635
▁env	-2636
▁कर्	-2637
▁घो	-2638
▁countries	-2639
▁क्षमता	-2640
▁किस	-2641
rent	-2642
ala	-2643
▁महिला	-2644
▁प्रदेश	-2645
▁understand	-2646
दाय	-2647
▁home	-2648
▁ru	-2649
चन	-2650
hing	-2651
▁five	-2652
▁pract	-2653
▁light	-2654
▁prime	-2655
▁perform	-2656
▁विवरण	-2657
▁general	-2658
▁based	-2659
▁जबकि	-2660
▁झुठला	-2661
▁issu	-2662
▁respect	-2663
▁few	-2664
हरी	-2665
▁fail	-2666
रित	-2667
▁fire	-2668
▁लक्ष	-2669
ged	-2670
▁enc	-2671
▁brought	-2672
."	-2673
▁सुरक्षा	-2674
▁full	-2675
▁विशि	-2676
▁care	-2677
▁instru	-2678
▁cr	-2679
▁love	-2680
स्थ्य	-2681
▁अतिरिक	-2682
माल	-2683
oney	-2684
▁mult	-2685
oses	-2686
▁198	-2687
▁later	-2688
▁ram	-2689
▁free	-2690
▁hard	-2691
▁gre	-2692
▁areas	-2693
▁धन	-2694
▁पूछ	-2695
iful	-2696
▁young	-2697
uss	-2698
▁speak	-2699
▁sector	-2700
एम	-2701
ham	-2702
▁ach	-2703
▁following	-2704
ortun	-2705
▁सच	-2706
mit	-2707
▁#	-2708
▁वहाँ	-2709
▁near	-2710
▁निर्ण	-2711
▁राम	-2712
▁record	-2713
▁path	-2714
ately	-2715
▁जिसने	-2716
▁हिंद	-2717
▁रखने	-2718
▁coun	-2719
ason	-2720
▁please	-2721
्‍	-2722
ug	-2723
▁30	-2724
▁मंदिर	-2725
▁sever	-2726
ड़ों	-2727
▁delhi	-2728
▁ग़	-2729
▁अच्छे	-2730
▁verily	-2731
▁शहर	-2732
▁रहते	-2733
▁whether	-2734
▁scheme	-2735
ंधान	-2736
पाल	-2737
▁मामले	-2738
▁साहित्य	-2739
▁टी	-2740
▁व्यवस्था	-2741
▁मनुष	-2742
▁महान	-2743
▁14	-2744
▁जीव	-2745
▁रहने	-2746
▁आग	-2747
्न	-2748
▁finan	-2749
गू	-2750
तनी	-2751
हम	-2752
▁एक्स	-2753
▁बर	-2754
▁tax	-2755
▁himself	-2756
▁13	-2757
▁बेशक	-2758
▁ve	-2759
▁विशिष्ट	-2760
र्जा	-2761
ुओं	-2762
▁चौ	-2763
ेशन	-2764
ger	-2765
▁type	-2766
दम	-2767
▁जैसा	-2768
▁स्थापित	-2769
br	-2770
▁seen	-2771
▁init	-2772
▁particular	-2773
ोन	-2774
used	-2775
ability	-2776
निर्	-2777
▁सभा	-2778
▁चाहता	-2779
eds	-2780
▁प्रशिक्ष	-2781
▁fur	-2782
▁nation	-2783
sp	-2784
▁नही	-2785
▁कंपनी	-2786
ode	-2787
▁पत्	-2788
साइट	-2789
belie	-2790
▁बच्चों	-2791
▁लेने	-2792
▁स्वास्थ्य	-2793
▁गुना	-2794
▁किन्तु	-2795
▁दिल्ली	-2796
▁king	-2797
▁निर्धारित	-2798
ote	-2799
▁अम	-2800
▁gandhi	-2801
▁वाय	-2802
▁death	-2803
▁निकल	-2804
वादी	-2805
▁suff	-2806
▁छोटे	-2807
▁several	-2808
ently	-2809
▁dise	-2810
ify	-2811
soci	-2812
▁बाल	-2813
▁cost	-2814
▁मू	-2815
▁field	-2816
▁तुम्हारा	-2817
▁अनुसंधान	-2818
▁others	-2819
▁nat	-2820
▁point	-2821
▁purp	-2822
oss	-2823
▁वर्षों	-2824
▁yet	-2825
▁respons	-2826
ali	-2827
ured	-2828
▁लगता	-2829
▁उठा	-2830
▁अतिरिक्त	-2831
▁तू	-2832
▁समु	-2833
▁अंग्रे	-2834
▁thought	-2835
वाई	-2836
▁still	-2837
▁इं	-2838
ज़ाब	-2839
▁लाख	-2840
▁hold	-2841
▁17	-2842
तमान	-2843
ग्री	-2844
▁self	-2845
▁राशि	-2846
orn	-2847
▁wr	-2848
▁हमेशा	-2849
क्स	-2850
▁unto	-2851
▁beg	-2852
ॉल	-2853
▁उदा	-2854
▁thing	-2855
mes	-2856
▁since	-2857
▁lab	-2858
▁सन्	-2859
gether	-2860
▁together	-2861
▁cir	-2862
▁भू	-2863
▁associ	-2864
ems	-2865
▁निर	-2866
तार	-2867
▁webs	-2868
▁manage	-2869
्ले	-2870
icult	-2871
▁stren	-2872
▁छा	-2873
▁चित्र	-2874
▁यू	-2875
ories	-2876
▁टे	-2877
▁क्रिया	-2878
▁रचना	-2879
▁प्रमाण	-2880
44	-2881
ready	-2882
▁सिर्फ	-2883
▁growth	-2884
मार	-2885
▁provide	-2886
▁बढ़ा	-2887
▁विकसित	-2888
▁mil	-2889
▁अवधि	-2890
▁age	-2891
▁took	-2892
▁able	-2893
▁प्रस्तुत	-2894
▁secur	-2895
ilities	-2896
ession	-2897
▁already	-2898
ential	-2899
▁किसान	-2900
वेदन	-2901
▁सोच	-2902
▁night	-2903
▁प्रती	-2904
▁true	-2905
▁वहां	-2906
स्तान	-2907
▁money	-2908
▁pain	-2909
चल	-2910
▁खुल	-2911
▁father	-2912
▁लागू	-2913
▁visit	-2914
ember	-2915
यां	-2916
ec	-2917
uty	-2918
▁एन	-2919
▁streng	-2920
▁plac	-2921
ks	-2922
▁mean	-2923
▁वर्तमान	-2924
▁punish	-2925
▁message	-2926
▁industry	-2927
ियन	-2928
ेंट	-2929
▁gave	-2930
बू	-2931
▁विन	-2932
▁बाजार	-2933
इस	-2934
▁स्वतंत्र	-2935
▁गं	-2936
▁कुल	-2937
▁asse	-2938
▁दूसरी	-2939
▁उद्देश्य	-2940
िले	-2941
▁डी	-2942
▁वो	-2943
▁दुर्	-2944
erence	-2945
▁संभव	-2946
rial	-2947
जित	-2948
▁बंग	-2949
▁control	-2950
कुल	-2951
▁प्रय	-2952
▁197	-2953
▁चे	-2954
tal	-2955
▁committe	-2956
idd	-2957
▁बचा	-2958
▁mill	-2959
▁whom	-2960
▁रखते	-2961
▁beng	-2962
ges	-2963
▁जोड़	-2964
▁big	-2965
▁once	-2966
▁making	-2967
तने	-2968
कल	-2969
▁next	-2970
cing	-2971
खित	-2972
▁further	-2973
▁उदाहरण	-2974
▁वेबसाइट	-2975
ैन	-2976
▁lot	-2977
▁function	-2978
▁remain	-2979
▁short	-2980
▁पो	-2981
▁mag	-2982
▁according	-2983
▁धरती	-2984
▁जानते	-2985
▁port	-2986
साय	-2987
▁contrib	-2988
▁website	-2989
▁अपे	-2990
▁जाएगी	-2991
▁lib	-2992
▁spir	-2993
▁creat	-2994
ivid	-2995
और	-2996
▁''	-2997
▁situ	-2998
▁पाया	-2999
:%	-3000
▁नौ	-3001
▁bar	-3002
ended	-3003
ष्ट्रीय	-3004
▁एस	-3005
जर	-3006
थम	-3007
गति	-3008
▁trib	-3009
▁गांधी	-3010
▁el	-3011
▁occas	-3012
▁mother	-3013
ोस	-3014
▁mor	-3015
▁मांग	-3016
बल	-3017
▁got	-3018
▁खोज	-3019
put	-3020
▁exist	-3021
▁जन्म	-3022
▁aut	-3023
▁जिससे	-3024
wh	-3025
▁test	-3026
▁किताब	-3027
▁आकार	-3028
▁along	-3029
aid	-3030
▁inte	-3031
▁दृष्टि	-3032
▁whole	-3033
▁live	-3034
ering	-3035
▁प्रेम	-3036
▁repres	-3037
▁matter	-3038
▁पड़े	-3039
▁achie	-3040
otion	-3041
.1	-3042
▁feel	-3043
▁went	-3044
▁वाप	-3045
▁चिक	-3046
▁जाये	-3047
▁provided	-3048
cl	-3049
▁गण	-3050
▁सां	-3051
शल	-3052
▁(2	-3053
▁प्रश्	-3054
▁hy	-3055
▁sal	-3056
▁मिले	-3057
▁q	-3058
▁became	-3059
?"	-3060
▁local	-3061
▁question	-3062
land	-3063
isation	-3064
ising	-3065
▁express	-3066
▁equal	-3067
▁impro	-3068
▁शिक	-3069
lement	-3070
ta	-3071
▁though	-3072
▁आधारित	-3073
▁international	-3074
▁having	-3075
▁ज़र	-3076
▁hindi	-3077
▁संसा	-3078
▁es	-3079
▁वर्ण	-3080
ope	-3081
ples	-3082
▁capital	-3083
▁पक	-3084
डा	-3085
▁चा	-3086
▁necess	-3087
▁भेज	-3088
ards	-3089
▁university	-3090
▁cell	-3091
▁ever	-3092
▁हमारा	-3093
▁इतिहास	-3094
▁inn	-3095
▁माना	-3096
▁मगर	-3097
▁forg	-3098
▁भूमिका	-3099
iding	-3100
▁तौर	-3101
तिम	-3102
▁रात	-3103
▁meas	-3104
नाथ	-3105
▁विश्वविद्यालय	-3106
ned	-3107
यात	-3108
▁thir	-3109
be	-3110
▁संस	-3111
ीकरण	-3112
▁मात्रा	-3113
▁rele	-3114
लत	-3115
▁evil	-3116
ait	-3117
▁संवि	-3118
▁राजा	-3119
▁themselves	-3120
▁लो	-3121
▁brit	-3122
▁production	-3123
▁2.	-3124
▁try	-3125
rict	-3126
भू	-3127
ष्य	-3128
▁bal	-3129
▁financial	-3130
ator	-3131
▁अला	-3132
▁nature	-3133
▁खेल	-3134
▁key	-3135
▁office	-3136
▁प्रस्ता	-3137
▁निकाल	-3138
here	-3139
▁इन्	-3140
▁resour	-3141
▁individ	-3142
▁consider	-3143
▁above	-3144
▁दक्षि	-3145
▁action	-3146
▁progress	-3147
▁संच	-3148
▁देखते	-3149
ोजित	-3150
▁गां	-3151
▁निस्	-3152
▁pan	-3153
▁foreign	-3154
▁faith	-3155
▁detail	-3156
▁मर	-3157
डे	-3158
▁वृद्धि	-3159
▁side	-3160
▁subject	-3161
▁cust	-3162
▁cause	-3163
akh	-3164
▁मनुष्य	-3165
ट्ट	-3166
▁पौ	-3167
▁बनाए	-3168
ाद्य	-3169
▁prad	-3170
▁आन	-3171
ours	-3172
▁orig	-3173
▁निर्णय	-3174
▁character	-3175
▁anim	-3176
20	-3177
▁started	-3178
▁admin	-3179
▁बच्चे	-3180
▁english	-3181
णा	-3182
पूर्व	-3183
मन	-3184
▁जाएँगे	-3185
ert	-3186
▁इस्ते	-3187
▁प्रगति	-3188
▁कमी	-3189
olution	-3190
ांत	-3191
▁words	-3192
▁भूमि	-3193
▁wrong	-3194
▁current	-3195
▁रि	-3196
क्षम	-3197
▁exce	-3198
▁आरंभ	-3199
▁रहता	-3200
वस्था	-3201
▁प्रारंभ	-3202
▁घटना	-3203
▁spirit	-3204
अप	-3205
▁तकनी	-3206
▁bill	-3207
दय	-3208
ners	-3209
▁दिशा	-3210
▁थो	-3211
▁error	-3212
▁bud	-3213
▁access	-3214
ंश	-3215
▁शाय	-3216
44;	-3217
▁#44;	-3218
eration	-3219
▁soon	-3220
म्बर	-3221
▁100	-3222
▁आकाश	-3223
▁समाप्त	-3224
que	-3225
▁सदस्य	-3226
▁create	-3227
▁निष्	-3228
▁political	-3229
गल	-3230
▁तत्व	-3231
▁relations	-3232
az	-3233
्रेस	-3234
▁पहली	-3235
▁श्रे	-3236
▁individual	-3237
लू	-3238
▁alm	-3239
▁रोक	-3240
▁history	-3241
▁opportun	-3242
umb	-3243
▁city	-3244
▁आदेश	-3245
ending	-3246
वीं	-3247
▁management	-3248
▁related	-3249
▁आयु	-3250
▁environ	-3251
▁काल	-3252
ुगतान	-3253
ification	-3254
raph	-3255
▁दें	-3256
▁देव	-3257
▁plant	-3258
दू	-3259
▁193	-3260
▁50	-3261
▁cred	-3262
▁tradition	-3263
▁mater	-3264
▁जरूरत	-3265
▁अध्ययन	-3266
▁quality	-3267
स्क	-3268
▁निश	-3269
▁चाहे	-3270
▁energ	-3271
▁application	-3272
निश्च	-3273
uted	-3274
ज्ञानिक	-3275
▁अनुभव	-3276
▁24	-3277
arat	-3278
sc	-3279
क्ता	-3280
▁strong	-3281
▁अंतर्गत	-3282
omp	-3283
▁खंड	-3284
▁खरी	-3285
लिखित	-3286
▁docu	-3287
▁पिछले	-3288
▁difficult	-3289
▁संबंधी	-3290
ery	-3291
▁required	-3292
तें	-3293
ानीय	-3294
▁muslim	-3295
डियो	-3296
▁अधीन	-3297
▁tell	-3298
▁इस्तेमाल	-3299
▁punishment	-3300
hen	-3301
ुनिक	-3302
▁har	-3303
बन्ध	-3304
▁न्याय	-3305
▁भि	-3306
▁vi	-3307
-201	-3308
idence	-3309
रि	-3310
▁circ	-3311
▁अंतिम	-3312
▁minist	-3313
▁six	-3314
▁parli	-3315
ज़ी	-3316
▁सका	-3317
▁pati	-3318
aring	-3319
र्भ	-3320
▁singh	-3321
▁worship	-3322
▁occasion	-3323
▁अल	-3324
▁infl	-3325
▁ऊर्जा	-3326
▁regard	-3327
▁dom	-3328
ached	-3329
▁कहीं	-3330
▁यातना	-3331
gr	-3332
राम	-3333
▁security	-3334
de	-3335
र्जी	-3336
rodu	-3337
▁line	-3338
▁अलावा	-3339
▁continu	-3340
▁अज़ाब	-3341
▁environment	-3342
▁जानता	-3343
▁बल	-3344
▁nam	-3345
▁भुगतान	-3346
▁parliament	-3347
▁held	-3348
▁computer	-3349
▁पेश	-3350
▁fut	-3351
▁priv	-3352
▁possible	-3353
▁san	-3354
▁सच्च	-3355
ched	-3356
▁मित्र	-3357
aim	-3358
▁village	-3359
▁talk	-3360
▁बंद	-3361
▁दिनों	-3362
▁working	-3363
▁li	-3364
संदेह	-3365
▁opens	-3366
त्मा	-3367
▁सिंह	-3368
▁belong	-3369
▁सत्य	-3370
epend	-3371
कर्ता	-3372
▁स्थापना	-3373
▁किये	-3374
▁press	-3375
▁students	-3376
▁department	-3377
▁पुस्तक	-3378
ises	-3379
शाली	-3380
▁peace	-3381
▁नव	-3382
▁चिकित	-3383
▁messeng	-3384
ened	-3385
fer	-3386
▁शायद	-3387
▁यक़	-3388
▁pradesh	-3389
तक	-3390
दों	-3391
▁अनि	-3392
ience	-3393
▁सार्व	-3394
घा	-3395
▁administ	-3396
▁appo	-3397
▁उपकरण	-3398
▁प्रशिक्षण	-3399
▁बोल	-3400
▁energy	-3401
▁initi	-3402
▁विस्तार	-3403
▁तंत्र	-3404
alf	-3405
▁hon	-3406
▁बहु	-3407
▁स्थानीय	-3408
aw	-3409
▁squ	-3410
▁चुका	-3411
▁चुके	-3412
▁hindu	-3413
▁story	-3414
▁युद्ध	-3415
▁programme	-3416
▁stat	-3417
▁course	-3418
▁activities	-3419
▁कांग	-3420
▁face	-3421
▁custom	-3422
▁science	-3423
▁संभाव	-3424
▁हिस्सा	-3425
ically	-3426
वरी	-3427
▁बच	-3428
▁मिश	-3429
▁fig	-3430
▁केन्द्र	-3431
▁congress	-3432
▁सिर	-3433
▁शे	-3434
▁सिवा	-3435
▁परंतु	-3436
गीत	-3437
▁रू	-3438
▁commission	-3439
ats	-3440
▁तुम्हारी	-3441
cil	-3442
▁training	-3443
▁न्यायालय	-3444
▁सफलता	-3445
▁rate	-3446
ृत्यु	-3447
▁बेहतर	-3448
▁problem	-3449
▁घा	-3450
▁bre	-3451
्रिय	-3452
▁glob	-3453
▁प्रस	-3454
जि	-3455
▁भावना	-3456
ेंस	-3457
कान	-3458
▁पूरे	-3459
▁प्रवेश	-3460
▁sour	-3461
▁assist	-3462
▁विदेशी	-3463
▁खोल	-3464
▁network	-3465
▁अर	-3466
ream	-3467
▁implement	-3468
द्रा	-3469
for	-3470
▁बिल	-3471
▁प्रथम	-3472
कु	-3473
line	-3474
▁वालों	-3475
▁complete	-3476
▁तहत	-3477
▁entire	-3478
▁वित्तीय	-3479
ji	-3480
▁asked	-3481
▁check	-3482
▁treat	-3483
ier	-3484
▁जहाँ	-3485
▁जल्	-3486
▁जांच	-3487
▁युवा	-3488
▁नियंत्रण	-3489
▁committee	-3490
▁नागर	-3491
▁संग्रह	-3492
▁institutions	-3493
▁राजनी	-3494
▁link	-3495
▁text	-3496
▁really	-3497
ूब	-3498
▁report	-3499
▁cop	-3500
▁insp	-3501
▁british	-3502
पाद	-3503
▁21	-3504
ling	-3505
▁step	-3506
▁इनकार	-3507
▁एम	-3508
▁उसको	-3509
▁close	-3510
▁future	-3511
▁dou	-3512
▁vers	-3513
▁nothing	-3514
▁लेते	-3515
▁demand	-3516
▁ir	-3517
▁ess	-3518
▁जाओ	-3519
▁fav	-3520
्यूटर	-3521
▁date	-3522
▁आधुनिक	-3523
रीब	-3524
▁कोशिश	-3525
▁sum	-3526
▁अधिकारी	-3527
ude	-3528
ences	-3529
▁स्कूल	-3530
hy	-3531
ibility	-3532
▁total	-3533
▁पहचान	-3534
▁independ	-3535
▁bea	-3536
▁मौजूद	-3537
▁pray	-3538
▁signs	-3539
▁कृप	-3540
▁modern	-3541
्राम	-3542
▁माँ	-3543
▁secret	-3544
▁मृत्यु	-3545
ogn	-3546
bo	-3547
▁goods	-3548
▁ident	-3549
ज्	-3550
▁son	-3551
▁पृष्ठ	-3552
र्च	-3553
▁mad	-3554
▁बुरा	-3555
▁top	-3556
दिष्ट	-3557
▁गुर	-3558
▁उत्पन्न	-3559
ारों	-3560
ंगे	-3561
▁written	-3562
ल्क	-3563
▁खे	-3564
▁प्रस्ताव	-3565
illed	-3566
▁appe	-3567
▁exch	-3568
▁constitution	-3569
एल	-3570
eous	-3571
▁tour	-3572
▁निस्संदेह	-3573
▁रिप	-3574
▁using	-3575
्रै	-3576
ारोह	-3577
र्स	-3578
▁पुरा	-3579
▁ste	-3580
▁प्रबंधन	-3581
▁including	-3582
▁सहित	-3583
कारा	-3584
▁क्ल	-3585
शु	-3586
▁मार	-3587
▁mount	-3588
rb	-3589
▁pot	-3590
▁नया	-3591
शोध	-3592
▁कौन	-3593
▁सरकारी	-3594
▁फल	-3595
▁जह	-3596
▁तुल	-3597
▁flow	-3598
▁blood	-3599
▁scient	-3600
ौम	-3601
००	-3602
▁deal	-3603
▁सहायक	-3604
▁सत	-3605
▁मही	-3606
▁संरचना	-3607
▁ill	-3608
▁meth	-3609
▁role	-3610
omes	-3611
▁trade	-3612
▁sun	-3613
▁करोड़	-3614
▁cast	-3615
▁प्रश्न	-3616
▁material	-3617
▁उल्लेख	-3618
▁muk	-3619
ript	-3620
▁कप	-3621
श्वर	-3622
my	-3623
ड़क	-3624
▁समिति	-3625
▁design	-3626
▁command	-3627
ateg	-3628
▁ans	-3629
▁norm	-3630
utes	-3631
▁000	-3632
▁जवा	-3633
▁खो	-3634
▁बने	-3635
▁वार	-3636
▁ful	-3637
▁देखने	-3638
ann	-3639
▁भाई	-3640
▁भवि	-3641
▁often	-3642
▁concern	-3643
▁phys	-3644
ication	-3645
▁centre	-3646
ilt	-3647
▁movement	-3648
▁vol	-3649
स्कार	-3650
▁higher	-3651
्रम	-3652
▁position	-3653
▁civ	-3654
्याल	-3655
▁अग्र	-3656
▁संगीत	-3657
स्म	-3658
▁नागरिक	-3659
▁conv	-3660
▁विधि	-3661
एफ	-3662
▁सुनिश्च	-3663
▁वैज्ञानिक	-3664
jee	-3665
acher	-3666
▁rad	-3667
▁समारोह	-3668
▁इंड	-3669
बाह	-3670
▁जिन्हें	-3671
aries	-3672
▁मंत्रालय	-3673
▁necessary	-3674
▁community	-3675
ior	-3676
त्सा	-3677
osp	-3678
▁works	-3679
▁ministry	-3680
गें	-3681
erve	-3682
▁निर्देश	-3683
▁निश्चित	-3684
▁राज्यों	-3685
mber	-3686
▁फर	-3687
▁gard	-3688
▁कृपया	-3689
▁represent	-3690
▁example	-3691
▁दिखाई	-3692
▁दक्षिण	-3693
▁princi	-3694
▁addition	-3695
reme	-3696
▁दया	-3697
▁received	-3698
▁past	-3699
▁त्रुट	-3700
म्मे	-3701
▁vari	-3702
▁पर्य	-3703
▁innov	-3704
▁deep	-3705
▁fold	-3706
ान्त	-3707
▁method	-3708
▁भविष्य	-3709
ches	-3710
▁abs	-3711
▁obs	-3712
▁cit	-3713
सू	-3714
▁आदमी	-3715
▁लक्ष्य	-3716
▁learn	-3717
▁इनमें	-3718
▁वन	-3719
▁लिखा	-3720
▁सम्मान	-3721
▁books	-3722
चर	-3723
▁गी	-3724
▁red	-3725
▁चयन	-3726
ंसा	-3727
पट	-3728
▁%	-3729
▁mal	-3730
▁simil	-3731
च्छा	-3732
ार्ड	-3733
न्यास	-3734
▁सुनिश्चित	-3735
पु	-3736
▁सै	-3737
▁reason	-3738
▁meeting	-3739
▁ten	-3740
▁खुलती	-3741
ील	-3742
▁परन्तु	-3743
▁आत्म	-3744
▁problems	-3745
aps	-3746
▁पहा	-3747
ुआ	-3748
ke	-3749
▁सेना	-3750
idered	-3751
▁मामलों	-3752
pr	-3753
▁century	-3754
ension	-3755
dom	-3756
ँच	-3757
▁विप	-3758
▁1961	-3759
▁विंडों	-3760
▁disease	-3761
उन	-3762
▁संयुक्त	-3763
ds	-3764
▁इतना	-3765
▁प्रभावित	-3766
▁मश	-3767
▁itself	-3768
▁dri	-3769
▁eyes	-3770
orrow	-3771
▁कांग्रेस	-3772
aster	-3773
ably	-3774
▁भिन्न	-3775
▁bengal	-3776
,000	-3777
▁aud	-3778
▁doing	-3779
▁share	-3780
▁artic	-3781
▁समर्थन	-3782
itation	-3783
जनिक	-3784
▁संद	-3785
▁prep	-3786
▁चुना	-3787
▁heavens	-3788
aged	-3789
ying	-3790
▁दस्ता	-3791
टवर्	-3792
▁certainly	-3793
ख्त	-3794
▁कहने	-3795
▁considered	-3796
▁देती	-3797
▁natural	-3798
▁bab	-3799
▁ens	-3800
▁ord	-3801
▁मंत्री	-3802
inted	-3803
lling	-3804
▁calc	-3805
र्चा	-3806
▁south	-3807
▁redu	-3808
▁party	-3809
▁वास्तविक	-3810
▁lay	-3811
arent	-3812
▁वक्त	-3813
जो	-3814
olk	-3815
ामीण	-3816
▁२	-3817
▁मॉ	-3818
त्त्व	-3819
▁earli	-3820
▁अपेक्षा	-3821
▁particip	-3822
▁civil	-3823
itive	-3824
▁करा	-3825
▁योगदान	-3826
▁industrial	-3827
▁saw	-3828
ograph	-3829
het	-3830
लाई	-3831
▁actually	-3832
▁पुनः	-3833
lo	-3834
बूत	-3835
ross	-3836
▁pet	-3837
▁religion	-3838
▁building	-3839
ीप	-3840
▁vir	-3841
▁needs	-3842
▁विरोध	-3843
▁सक्रिय	-3844
▁pal	-3845
oura	-3846
▁nar	-3847
▁निर्यात	-3848
ज़र	-3849
▁chief	-3850
▁लं	-3851
▁चाल	-3852
men	-3853
imum	-3854
oh	-3855
ti	-3856
ैस	-3857
play	-3858
▁शासन	-3859
▁crit	-3860
cially	-3861
▁अनुमति	-3862
फा	-3863
ival	-3864
▁खिला	-3865
uro	-3866
▁deb	-3867
▁वापस	-3868
▁pap	-3869
▁आवा	-3870
▁saf	-3871
▁condu	-3872
▁union	-3873
▁leave	-3874
▁teacher	-3875
▁उन्	-3876
acity	-3877
झा	-3878
▁मुद्रा	-3879
▁discuss	-3880
▁authority	-3881
▁सार्वजनिक	-3882
▁council	-3883
िव	-3884
▁उद्य	-3885
▁समुदा	-3886
▁bes	-3887
▁culture	-3888
▁disbelie	-3889
▁कानून	-3890
▁व्यापक	-3891
▁लाल	-3892
▁अनुर	-3893
app	-3894
▁parts	-3895
▁प्राय	-3896
▁imm	-3897
▁north	-3898
▁दाय	-3899
▁सेट	-3900
▁ग्रामीण	-3901
ोगे	-3902
▁पदार्थ	-3903
▁संगठन	-3904
▁लेखा	-3905
▁global	-3906
▁recogn	-3907
▁till	-3908
▁invol	-3909
▁consum	-3910
▁हित	-3911
▁सुना	-3912
▁hands	-3913
▁living	-3914
▁similar	-3915
खी	-3916
▁पुरस्कार	-3917
▁जाय	-3918
▁पड़ा	-3919
▁भीतर	-3920
atch	-3921
▁आपकी	-3922
▁farmers	-3923
उस	-3924
ape	-3925
▁brother	-3926
isions	-3927
▁agree	-3928
▁subst	-3929
▁मिट	-3930
चीन	-3931
▁early	-3932
सत	-3933
▁संविधान	-3934
▁उचित	-3935
▁जैसी	-3936
▁संत	-3937
▁संदर्भ	-3938
▁repl	-3939
▁separ	-3940
▁leaders	-3941
▁रिपोर्ट	-3942
▁अफ	-3943
▁तु	-3944
cent	-3945
ोक्ता	-3946
हे	-3947
ets	-3948
▁रोज	-3949
▁pran	-3950
▁super	-3951
▁पांच	-3952
▁निम्नलिखित	-3953
वस	-3954
ones	-3955
▁सर्वो	-3956
▁त्रुटि	-3957
▁संपर्क	-3958
ends	-3959
ंतर	-3960
▁भेजा	-3961
▁grant	-3962
▁established	-3963
मू	-3964
ृति	-3965
▁भग	-3966
▁trust	-3967
▁literature	-3968
▁रेल	-3969
▁क़ौम	-3970
▁छोटी	-3971
▁hell	-3972
▁mach	-3973
ंथ	-3974
▁basis	-3975
▁credit	-3976
▁दस्तावे	-3977
दर	-3978
टों	-3979
▁rules	-3980
yed	-3981
ादी	-3982
ानि	-3983
▁दश	-3984
rect	-3985
▁fall	-3986
omm	-3987
जू	-3988
urs	-3989
▁friends	-3990
▁temple	-3991
बाहरी	-3992
▁23	-3993
▁कम्प	-3994
▁नियु	-3995
▁whose	-3996
▁बंगाल	-3997
ैंड	-3998
ony	-3999
ani	-4000
ribed	-4001
▁मूसा	-4002
▁स्रो	-4003
▁प्रोत्सा	-4004
▁citiz	-4005
▁जिन्होंने	-4006
▁told	-4007
▁freed	-4008
▁efforts	-4009
els	-4010
▁mis	-4011
▁सदस्यों	-4012
▁ज़मीन	-4013
igh	-4014
ानों	-4015
▁condition	-4016
▁रक्षा	-4017
िको	-4018
ively	-4019
▁ढा	-4020
▁सामग्री	-4021
▁job	-4022
▁अत्यन्त	-4023
lled	-4024
▁भोजन	-4025
▁forward	-4026
ोर्ड	-4027
▁transl	-4028
▁property	-4029
▁mukher	-4030
rish	-4031
▁*	-4032
रो	-4033
ung	-4034
बरा	-4035
▁खुदा	-4036
▁अध्यक्ष	-4037
▁नदी	-4038
▁save	-4039
▁cho	-4040
ोलन	-4041
▁pen	-4042
verse	-4043
▁योग्य	-4044
यान	-4045
ोल्	-4046
ांति	-4047
▁arch	-4048
▁display	-4049
▁official	-4050
-2018	-4051
isl	-4052
port	-4053
▁single	-4054
▁low	-4055
▁wit	-4056
▁26	-4057
ल्पना	-4058
▁1,	-4059
▁sam	-4060
▁अधिकां	-4061
▁धी	-4062
▁chand	-4063
ask	-4064
▁डॉ	-4065
▁fru	-4066
▁developed	-4067
▁mukherjee	-4068
▁धार	-4069
▁purpose	-4070
▁संस्कृति	-4071
वेद	-4072
▁रक्त	-4073
▁प्रतिनि	-4074
म्ब	-4075
▁rural	-4076
▁जिसकी	-4077
▁appear	-4078
▁खुद	-4079
▁remember	-4080
rs	-4081
जरा	-4082
थमिक	-4083
▁soft	-4084
▁reward	-4085
▁हास	-4086
▁failed	-4087
▁दौ	-4088
▁regist	-4089
gu	-4090
io	-4091
ेड	-4092
▁wee	-4093
▁ones	-4094
ण्	-4095
▁दल	-4096
▁neg	-4097
▁प्रकाशित	-4098
▁loss	-4099
▁greater	-4100
▁write	-4101
▁multip	-4102
ुद्ध	-4103
▁अवस्था	-4104
ained	-4105
▁अपरा	-4106
▁plus	-4107
aves	-4108
▁मुखर्जी	-4109
▁192	-4110
क्षर	-4111
▁न्यू	-4112
va	-4113
▁मालूम	-4114
augh	-4115
▁जिनके	-4116
▁राय	-4117
▁शीर्ष	-4118
ront	-4119
▁sil	-4120
▁seek	-4121
र्ण	-4122
▁किन	-4123
▁birth	-4124
▁religious	-4125
▁पिता	-4126
▁3.	-4127
krit	-4128
▁शता	-4129
ceed	-4130
pur	-4131
hold	-4132
▁almost	-4133
▁forest	-4134
▁रखना	-4135
tained	-4136
▁जहन्न	-4137
2.	-4138
▁stra	-4139
▁ground	-4140
▁spread	-4141
घ्र	-4142
▁force	-4143
▁लाए	-4144
▁democ	-4145
▁typ	-4146
▁खाते	-4147
▁आवेदन	-4148
▁विभा	-4149
ज्ञा	-4150
▁इका	-4151
▁wis	-4152
▁निकट	-4153
▁begin	-4154
▁आश	-4155
▁wise	-4156
▁प्रकृति	-4157
▁jour	-4158
▁खरीद	-4159
▁chall	-4160
external	-4161
▁बज	-4162
▁प्राथमिक	-4163
▁ter	-4164
▁legisl	-4165
▁अधिकांश	-4166
go	-4167
▁reform	-4168
▁कार्यालय	-4169
▁बढ	-4170
rast	-4171
▁road	-4172
▁’	-4173
▁जित	-4174
▁conduct	-4175
ख़िर	-4176
▁kept	-4177
▁either	-4178
▁asp	-4179
▁हैः	-4180
▁निजी	-4181
बह	-4182
▁freedom	-4183
▁structure	-4184
itor	-4185
▁उम्	-4186
▁चर्चा	-4187
पे	-4188
▁=	-4189
▁warn	-4190
▁स्वतंत्रता	-4191
▁ऊंच	-4192
सिद्ध	-4193
दु	-4194
ixed	-4195
▁औद्योगिक	-4196
▁merc	-4197
व्यवस्था	-4198
uf	-4199
▁stri	-4200
▁projects	-4201
▁खाता	-4202
▁छात्र	-4203
▁enj	-4204
▁चाहिये	-4205
▁पर्याप्त	-4206
क्टर	-4207
ैतिक	-4208
▁सृ	-4209
▁आता	-4210
▁coop	-4211
▁संके	-4212
▁कंप्यूटर	-4213
▁प्रकट	-4214
▁months	-4215
▁नेटवर्	-4216
तृ	-4217
▁excell	-4218
पक	-4219
▁27	-4220
cious	-4221
istic	-4222
▁जिनमें	-4223
▁poor	-4224
▁says	-4225
▁बातें	-4226
▁भारी	-4227
▁मिलता	-4228
मह	-4229
ots	-4230
▁anything	-4231
▁कदम	-4232
▁रिक	-4233
fully	-4234
्सा	-4235
▁इला	-4236
airs	-4237
▁west	-4238
▁river	-4239
▁anci	-4240
new	-4241
▁lear	-4242
▁ईश्वर	-4243
ruction	-4244
▁contact	-4245
▁लौट	-4246
▁केंद्रीय	-4247
घु	-4248
▁taking	-4249
▁चले	-4250
▁शुभ	-4251
गु	-4252
▁समृ	-4253
▁wide	-4254
▁behind	-4255
धिकार	-4256
▁bad	-4257
क्रमण	-4258
▁connect	-4259
bar	-4260
▁28	-4261
▁प्राचीन	-4262
ंगी	-4263
ेलन	-4264
▁साह	-4265
▁guide	-4266
▁hous	-4267
▁तुमसे	-4268
▁दूसरा	-4269
asing	-4270
एन	-4271
ंडल	-4272
▁comes	-4273
▁किंतु	-4274
एक	-4275
मक	-4276
▁dig	-4277
▁sound	-4278
▁mention	-4279
side	-4280
▁sans	-4281
ोग्राम	-4282
hood	-4283
▁exchange	-4284
▁rail	-4285
ological	-4286
'.	-4287
र्ग	-4288
▁व्यक्तियों	-4289
oid	-4290
▁ge	-4291
▁दृष्ट	-4292
▁paid	-4293
▁आकर्	-4294
rop	-4295
▁turned	-4296
▁investment	-4297
▁अंक	-4298
▁conditions	-4299
राज	-4300
▁won	-4301
▁aware	-4302
▁तरीके	-4303
स्‍	-4304
▁reve	-4305
▁कविता	-4306
▁तेल	-4307
▁gur	-4308
▁सक्षम	-4309
रल	-4310
लिस	-4311
abha	-4312
▁half	-4313
▁सलाह	-4314
▁आयोजित	-4315
जह	-4316
▁carry	-4317
▁signific	-4318
icient	-4319
▁ऑफ	-4320
▁exec	-4321
mad	-4322
ison	-4323
action	-4324
▁रहेंगे	-4325
▁रहती	-4326
▁persons	-4327
▁नर	-4328
▁resources	-4329
▁प्राकृतिक	-4330
त्री	-4331
▁2014	-4332
▁changes	-4333
▁thy	-4334
▁लागत	-4335
inary	-4336
▁music	-4337
▁1961-2018	-4338
▁ति	-4339
ठा	-4340
ita	-4341
medi	-4342
र्ज	-4343
▁अगले	-4344
ousand	-4345
▁until	-4346
▁selected	-4347
▁बनी	-4348
▁million	-4349
▁शांति	-4350
▁popular	-4351
▁पूंजी	-4352
▁thousand	-4353
गाह	-4354
▁विशाल	-4355
▁corpor	-4356
unt	-4357
▁शाखा	-4358
वधान	-4359
▁bran	-4360
▁आते	-4361
▁cele	-4362
▁संभावना	-4363
न्ट	-4364
भीर	-4365
▁dam	-4366
▁प्रदर्शन	-4367
den	-4368
राह	-4369
▁31	-4370
▁thee	-4371
▁send	-4372
just	-4373
▁आंद	-4374
sue	-4375
val	-4376
फ्ट	-4377
▁qur	-4378
▁sense	-4379
▁study	-4380
▁east	-4381
▁शीघ्र	-4382
सलमान	-4383
▁ढंग	-4384
▁lakh	-4385
▁डेटा	-4386
▁पहुँच	-4387
▁bur	-4388
वत्ता	-4389
atives	-4390
▁price	-4391
▁cover	-4392
▁pranab	-4393
ored	-4394
▁increase	-4395
imate	-4396
वाले	-4397
▁determ	-4398
▁यक़ीन	-4399
▁believers	-4400
▁2000	-4401
▁collect	-4402
▁capacity	-4403
ott	-4404
र्व	-4405
gest	-4406
▁उपाय	-4407
भाल	-4408
▁मिली	-4409
▁हिन्दी	-4410
▁built	-4411
ंपरा	-4412
▁achieve	-4413
टल	-4414
▁ज़ि	-4415
▁fest	-4416
▁kh	-4417
▁संसार	-4418
▁economy	-4419
▁witness	-4420
▁परीक्षा	-4421
):	-4422
▁fort	-4423
▁eight	-4424
▁तुमने	-4425
▁किसानों	-4426
▁instrument	-4427
▁तीस	-4428
▁छोटा	-4429
▁drink	-4430
▁महारा	-4431
▁decl	-4432
▁board	-4433
▁earlier	-4434
▁therein	-4435
▁नगर	-4436
▁district	-4437
▁विद्यार्थ	-4438
▁host	-4439
▁संसद	-4440
▁introdu	-4441
▁matters	-4442
▁sanskrit	-4443
▁brah	-4444
▁निर्भर	-4445
्षिक	-4446
▁विविध	-4447
लब	-4448
imes	-4449
▁sac	-4450
▁vide	-4451
▁उद्यम	-4452
▁मजबूत	-4453
शिया	-4454
▁arr	-4455
▁गतिविध	-4456
▁writing	-4457
ech	-4458
▁अमे	-4459
itude	-4460
▁situation	-4461
ैव	-4462
▁भंड	-4463
▁mahar	-4464
▁terms	-4465
▁cut	-4466
कला	-4467
▁benefit	-4468
वत	-4469
पूर्वक	-4470
ंबई	-4471
ार्मिक	-4472
कीय	-4473
िक्	-4474
▁harm	-4475
▁तुलना	-4476
▁लॉ	-4477
▁disp	-4478
ription	-4479
▁draw	-4480
▁सेवाओं	-4481
ina	-4482
after	-4483
▁पालन	-4484
pal	-4485
चारी	-4486
ियान	-4487
चि	-4488
स्थिति	-4489
▁search	-4490
▁followed	-4491
▁संय	-4492
cle	-4493
rary	-4494
▁cert	-4495
▁merciful	-4496
ंबर	-4497
्वी	-4498
atever	-4499
▁products	-4500
▁ho	-4501
▁स्म	-4502
▁reach	-4503
ृह	-4504
▁tele	-4505
▁सुरक्षित	-4506
कारों	-4507
▁cases	-4508
▁image	-4509
▁ब्रिट	-4510
▁शताब्	-4511
▁नेटवर्क	-4512
▁compet	-4513
▁आपका	-4514
▁गुणवत्ता	-4515
▁गैर	-4516
▁claim	-4517
▁पकड़	-4518
▁विकल्प	-4519
▁आशा	-4520
▁प्रणब	-4521
ira	-4522
▁भौ	-4523
▁emp	-4524
▁लगी	-4525
▁गांव	-4526
▁जाति	-4527
▁मशीन	-4528
क्या	-4529
▁कोशिका	-4530
▁details	-4531
▁gir	-4532
▁अध्या	-4533
▁personal	-4534
▁कठिन	-4535
जली	-4536
▁22	-4537
▁gri	-4538
▁soul	-4539
▁budd	-4540
▁धार्मिक	-4541
ँह	-4542
▁आँ	-4543
▁चुनौ	-4544
▁doub	-4545
▁stay	-4546
▁enjoy	-4547
दृ	-4548
▁bit	-4549
▁depos	-4550
▁across	-4551
▁agriculture	-4552
uses	-4553
धारा	-4554
▁space	-4555
धाई	-4556
▁अंदर	-4557
▁deeds	-4558
▁शब्दों	-4559
▁पंजी	-4560
कत	-4561
दारों	-4562
▁inse	-4563
▁size	-4564
ुप	-4565
▁mass	-4566
▁परंपरा	-4567
5.	-4568
▁log	-4569
▁मुद्	-4570
--	-4571
▁specific	-4572
▁generally	-4573
नेट	-4574
▁member	-4575
थर	-4576
▁hund	-4577
▁ast	-4578
▁private	-4579
ects	-4580
वासी	-4581
erved	-4582
▁बधाई	-4583
▁कहानी	-4584
▁अनिवार	-4585
▁whatever	-4586
▁source	-4587
▁प्रभ	-4588
▁व्यवहार	-4589
▁agricultural	-4590
mission	-4591
uge	-4592
इयों	-4593
▁adop	-4594
▁हासिल	-4595
▁hundred	-4596
काम	-4597
▁कहना	-4598
▁फाइल	-4599
▁sup	-4600
bit	-4601
cer	-4602
▁ग्राह	-4603
▁सिद्धांत	-4604
लाइन	-4605
▁makes	-4606
▁191	-4607
ोल्डर	-4608
▁समुदाय	-4609
्श	-4610
▁पद्ध	-4611
ल्ल	-4612
▁रखी	-4613
सु	-4614
न्व	-4615
▁करनी	-4616
▁मोह	-4617
िब	-4618
nam	-4619
▁fr	-4620
▁gives	-4621
ipp	-4622
▁forms	-4623
▁influ	-4624
▁सारी	-4625
-2	-4626
body	-4627
▁रखता	-4628
▁institute	-4629
▁हृ	-4630
▁देगा	-4631
▁population	-4632
▁fem	-4633
ura	-4634
do	-4635
भावी	-4636
▁cra	-4637
▁निर्मित	-4638
मीद	-4639
▁संरक्षण	-4640
....	-4641
स्टम	-4642
▁somet	-4643
▁issued	-4644
▁बताया	-4645
▁rights	-4646
▁request	-4647
▁id	-4648
▁दू	-4649
▁जल्दी	-4650
▁शिकाय	-4651
▁प्रतिक	-4652
▁अर्थव्यवस्था	-4653
eness	-4654
चारियों	-4655
▁जे	-4656
abad	-4657
गि	-4658
▁0.	-4659
▁answ	-4660
▁news	-4661
▁rich	-4662
50	-4663
किंग	-4664
िकोण	-4665
▁गुम	-4666
▁besides	-4667
▁महत्त्व	-4668
▁40	-4669
▁phil	-4670
म्भ	-4671
▁believed	-4672
▁दस	-4673
▁सम्मेलन	-4674
ंकन	-4675
rat	-4676
▁सीधे	-4677
▁आदर्श	-4678
▁संशोध	-4679
▁बौ	-4680
▁दिख	-4681
▁rule	-4682
तया	-4683
▁चीज	-4684
▁destro	-4685
▁transfer	-4686
ening	-4687
▁संस्कृत	-4688
▁duty	-4689
▁payment	-4690
▁क्रम	-4691
▁डाला	-4692
▁continue	-4693
▁रखे	-4694
▁distrib	-4695
▁दिवस	-4696
▁अर्था	-4697
▁अनिवार्य	-4698
cies	-4699
▁अधि	-4700
▁मुसलमान	-4701
▁seven	-4702
▁require	-4703
▁सम्बन्ध	-4704
▁sea	-4705
राष्ट्रीय	-4706
▁अनुक	-4707
▁fast	-4708
▁alone	-4709
▁front	-4710
▁विद	-4711
adem	-4712
▁मुझ	-4713
▁शर्	-4714
▁रुपये	-4715
मय	-4716
▁(1)	-4717
▁dece	-4718
▁कमा	-4719
▁लघु	-4720
▁अवश्य	-4721
▁आसमान	-4722
ोष	-4723
▁खास	-4724
▁तुमको	-4725
▁everything	-4726
7.	-4727
ून्य	-4728
▁इत्या	-4729
▁neither	-4730
elt	-4731
▁mic	-4732
▁तेजी	-4733
▁पर्यावरण	-4734
▁प्रसिद्ध	-4735
▁install	-4736
▁ak	-4737
▁mr	-4738
▁tor	-4739
▁तत्	-4740
▁पड़ता	-4741
▁enough	-4742
▁establish	-4743
!"	-4744
▁wealth	-4745
▁आंदोलन	-4746
face	-4747
▁stop	-4748
▁अत्यंत	-4749
▁loan	-4750
▁मुक्त	-4751
पात	-4752
▁राजनीतिक	-4753
▁tree	-4754
िनी	-4755
▁"%	-4756
▁exc	-4757
▁बनाना	-4758
▁infrast	-4759
▁चिकित्सा	-4760
्वेष	-4761
▁stage	-4762
▁पुलिस	-4763
kar	-4764
भूति	-4765
▁चरण	-4766
▁banks	-4767
▁संसाधन	-4768
▁celebr	-4769
▁...	-4770
▁जवाब	-4771
bed	-4772
नेवाले	-4773
▁happy	-4774
▁जरूरी	-4775
▁असम	-4776
▁आती	-4777
▁दबा	-4778
▁tri	-4779
▁विधान	-4780
atory	-4781
▁भंडार	-4782
enty	-4783
6.	-4784
▁town	-4785
▁award	-4786
▁document	-4787
▁usually	-4788
ंद्र	-4789
▁room	-4790
िना	-4791
▁बदले	-4792
▁ancient	-4793
▁सीख	-4794
▁stru	-4795
▁minus	-4796
ठी	-4797
▁मना	-4798
hammad	-4799
▁चर	-4800
धनों	-4801
▁सरल	-4802
▁third	-4803
▁झू	-4804
eric	-4805
▁song	-4806
▁नाटक	-4807
▁event	-4808
▁wife	-4809
▁stone	-4810
▁भगवान	-4811
▁ma	-4812
मारी	-4813
▁lost	-4814
9.	-4815
▁jan	-4816
▁जंग	-4817
▁हटा	-4818
ables	-4819
क्शन	-4820
▁lat	-4821
ills	-4822
ires	-4823
▁पंच	-4824
aled	-4825
स्ती	-4826
बोध	-4827
▁घट	-4828
▁स्रोत	-4829
▁provides	-4830
ift	-4831
▁ded	-4832
▁gang	-4833
वेयर	-4834
▁deli	-4835
▁below	-4836
▁decided	-4837
म्र	-4838
▁ep	-4839
▁oil	-4840
▁पाए	-4841
▁feed	-4842
▁शताब्दी	-4843
gra	-4844
▁acqu	-4845
▁youth	-4846
▁cultural	-4847
ev	-4848
aught	-4849
▁letter	-4850
▁improve	-4851
भूत	-4852
▁पृथ	-4853
▁creation	-4854
▁वार्षिक	-4855
▁strength	-4856
स्टर	-4857
▁आपने	-4858
▁बैठक	-4859
▁लाने	-4860
amm	-4861
▁भागी	-4862
ray	-4863
▁prob	-4864
▁परिष	-4865
ees	-4866
ापन	-4867
▁places	-4868
फ्त	-4869
▁युग	-4870
▁mand	-4871
▁अधिकारियों	-4872
let	-4873
by	-4874
oke	-4875
साथ	-4876
▁wish	-4877
▁पहला	-4878
ष्ट्र	-4879
▁firm	-4880
▁यक़ीनन	-4881
▁decision	-4882
▁partners	-4883
▁संस्थानों	-4884
रीय	-4885
rote	-4886
कालीन	-4887
▁hope	-4888
▁निर्दिष्ट	-4889
ियर	-4890
▁quite	-4891
▁rain	-4892
▁facilities	-4893
▁अंश	-4894
pecially	-4895
istan	-4896
▁शून्य	-4897
▁कोर्	-4898
▁issue	-4899
▁पेट	-4900
▁unit	-4901
णि	-4902
▁wall	-4903
▁क़ुर	-4904
▁मालिक	-4905
gar	-4906
▁easy	-4907
▁prim	-4908
▁eat	-4909
धियों	-4910
▁मुँह	-4911
▁यंत्र	-4912
▁समुद्र	-4913
tax	-4914
सिक	-4915
▁cat	-4916
▁tou	-4917
▁जिम्मे	-4918
▁जोर	-4919
▁commer	-4920
▁insect	-4921
▁relating	-4922
▁foc	-4923
▁mercy	-4924
▁police	-4925
▁अनुप्र	-4926
▁लेना	-4927
▁विंडो	-4928
▁हस्ता	-4929
ंगा	-4930
▁निशान	-4931
▁manner	-4932
▁experience	-4933
दर्शन	-4934
▁proced	-4935
8.	-4936
▁appointed	-4937
ring	-4938
ggest	-4939
iction	-4940
▁क्षमा	-4941
▁outside	-4942
▁aim	-4943
▁engine	-4944
▁deny	-4945
▁published	-4946
une	-4947
▁अक	-4948
rate	-4949
▁अन्	-4950
▁protect	-4951
uk	-4952
▁boy	-4953
ेप	-4954
्ब	-4955
▁अह	-4956
▁sty	-4957
▁आयोग	-4958
स्कृतिक	-4959
▁पश्चात	-4960
▁prepared	-4961
▁operation	-4962
▁इत्यादि	-4963
▁laun	-4964
▁companies	-4965
फिर	-4966
▁none	-4967
▁crore	-4968
▁reject	-4969
▁speech	-4970
▁suggest	-4971
▁लगाया	-4972
औन	-4973
tar	-4974
▁असा	-4975
vere	-4976
▁treatment	-4977
▁चुकी	-4978
gment	-4979
▁assemb	-4980
▁raised	-4981
▁लें	-4982
ufact	-4983
प्रिय	-4984
वालों	-4985
▁शैली	-4986
▁हजार	-4987
vi	-4988
किल	-4989
परिक	-4990
▁गंभीर	-4991
▁प्रदर्शित	-4992
चक	-4993
▁immedi	-4994
▁messenger	-4995
धानी	-4996
▁सात	-4997
▁white	-4998
▁simple	-4999
▁especially	-5000
▁ved	-5001
ulated	-5002
▁morning	-5003
▁accounts	-5004
ज़े	-5005
▁पथ	-5006
▁इन्ह	-5007
haps	-5008
क्षक	-5009
▁undert	-5010
ada	-5011
▁began	-5012
▁least	-5013
▁regular	-5014
aug	-5015
▁guj	-5016
▁tool	-5017
▁नेता	-5018
राब	-5019
स्य	-5020
▁forth	-5021
▁manufact	-5022
▁अक्	-5023
▁prem	-5024
देव	-5025
द्द	-5026
▁led	-5027
aya	-5028
▁साफ	-5029
▁बुला	-5030
ivity	-5031
▁industries	-5032
ented	-5033
itable	-5034
▁उपस्थित	-5035
▁दृष्टिकोण	-5036
sequ	-5037
▁पाने	-5038
hib	-5039
▁wrote	-5040
▁वर्णन	-5041
3.	-5042
▁री	-5043
▁बिल्	-5044
▁woman	-5045
▁coming	-5046
्‍य	-5047
प्ता	-5048
▁विचारों	-5049
▁संपत्ति	-5050
▁बोर्ड	-5051
▁include	-5052
▁programmes	-5053
▁गुजरा	-5054
▁उम्मीद	-5055
▁sometimes	-5056
र्ड	-5057
▁folder	-5058
▁sud	-5059
▁उपभ	-5060
estic	-5061
▁अंग्रेजी	-5062
▁officer	-5063
नो	-5064
ush	-5065
▁१९	-5066
aint	-5067
▁रहना	-5068
utiful	-5069
▁छिप	-5070
▁सुंदर	-5071
▁समाधान	-5072
▁medical	-5073
jab	-5074
▁knows	-5075
osop	-5076
▁dele	-5077
▁खर्च	-5078
▁teach	-5079
▁conference	-5080
वृत्ति	-5081
▁plants	-5082
gs	-5083
स्ति	-5084
▁ग्रह	-5085
▁sabha	-5086
ग्	-5087
▁er	-5088
▁तय	-5089
▁उपचार	-5090
▁मिट्टी	-5091
▁cy	-5092
▁त्व	-5093
▁कार्यों	-5094
▁टै	-5095
▁round	-5096
▁देंगे	-5097
▁viol	-5098
▁approach	-5099
▁infrastructure	-5100
दूर	-5101
▁परिच	-5102
मीर	-5103
▁contain	-5104
▁employment	-5105
▁हल	-5106
▁सम्प	-5107
come	-5108
▁sust	-5109
▁judge	-5110
▁righteous	-5111
1.	-5112
▁bat	-5113
ava	-5114
▁passed	-5115
दाता	-5116
)।	-5117
ंति	-5118
षणा	-5119
▁60	-5120
▁वायु	-5121
ोने	-5122
▁हक़	-5123
▁medic	-5124
▁perhaps	-5125
▁पश्चिम	-5126
▁krish	-5127
▁getting	-5128
▁histor	-5129
▁सफ	-5130
▁पाल	-5131
▁संक	-5132
▁copy	-5133
▁बिजली	-5134
▁mighty	-5135
▁saying	-5136
▁encoura	-5137
जु	-5138
min	-5139
ताल	-5140
▁tar	-5141
▁fram	-5142
▁पसंद	-5143
▁समझौ	-5144
▁प्रभावी	-5145
िरा	-5146
▁hear	-5147
▁task	-5148
▁आसान	-5149
▁lives	-5150
▁wanted	-5151
▁strengthe	-5152
ूनी	-5153
▁pu	-5154
▁जादू	-5155
▁दृश्य	-5156
▁मानते	-5157
▁सिस्टम	-5158
▁note	-5159
▁पंजा	-5160
▁video	-5161
▁विद्व	-5162
⁄4	-5163
vey	-5164
खों	-5165
▁mut	-5166
▁सदैव	-5167
▁groups	-5168
▁मोट	-5169
▁born	-5170
▁महीने	-5171
▁justice	-5172
▁euro	-5173
▁पूर्	-5174
ental	-5175
▁march	-5176
▁वैश्व	-5177
▁citizens	-5178
▁+	-5179
▁काफ़	-5180
.2014	-5181
▁रोजगार	-5182
aka	-5183
▁अना	-5184
▁बातों	-5185
▁win	-5186
▁parent	-5187
▁प्रसन्न	-5188
स्ते	-5189
▁पहल	-5190
▁limited	-5191
▁clean	-5192
▁सीमित	-5193
▁प्रसार	-5194
▁learning	-5195
कम	-5196
▁करी	-5197
▁mumb	-5198
▁famous	-5199
uary	-5200
▁विवाह	-5201
भाष	-5202
▁पुरुष	-5203
्यालयों	-5204
सों	-5205
▁mot	-5206
▁rather	-5207
▁tam	-5208
▁शेष	-5209
▁basic	-5210
▁color	-5211
▁शुल्क	-5212
▁issues	-5213
▁philosop	-5214
▁सकें	-5215
▁novel	-5216
नेवाला	-5217
▁bound	-5218
igation	-5219
▁origin	-5220
▁dead	-5221
▁guard	-5222
▁refer	-5223
▁मिलने	-5224
▁सांस्कृतिक	-5225
▁इनके	-5226
▁physical	-5227
▁max	-5228
▁ताल	-5229
▁मुह	-5230
▁sens	-5231
▁reached	-5232
▁महिलाओं	-5233
ाये	-5234
▁pow	-5235
▁hour	-5236
▁user	-5237
▁wait	-5238
▁प्राधिक	-5239
▁चलो	-5240
▁इंटर	-5241
स्वरूप	-5242
ead	-5243
▁profession	-5244
ares	-5245
मेंट	-5246
▁files	-5247
▁आयतों	-5248
यामत	-5249
▁इच्छा	-5250
▁mission	-5251
बि	-5252
where	-5253
▁बीमा	-5254
▁folk	-5255
▁schol	-5256
▁tend	-5257
▁prior	-5258
▁पद्धति	-5259
▁meaning	-5260
मल	-5261
▁lower	-5262
▁fight	-5263
ler	-5264
सूस	-5265
▁अंड	-5266
▁comb	-5267
▁ब्या	-5268
▁emerg	-5269
▁caused	-5270
▁पत्थर	-5271
▁सम्मिल	-5272
▁produce	-5273
्यान्व	-5274
▁occur	-5275
▁आख़िर	-5276
दास	-5277
्ष्	-5278
▁4.	-5279
▁carried	-5280
▁export	-5281
▁beautiful	-5282
▁black	-5283
▁mumbai	-5284
▁वस्तुओं	-5285
▁importance	-5286
मिल	-5287
▁80	-5288
over	-5289
▁mom	-5290
▁ris	-5291
▁नसी	-5292
▁बर्	-5293
▁animals	-5294
empt	-5295
▁उपन्यास	-5296
श्छ	-5297
▁(3	-5298
▁indic	-5299
▁उपयुक्त	-5300
▁वजह	-5301
▁milk	-5302
▁गलत	-5303
कृष्ट	-5304
िक्री	-5305
▁camp	-5306
▁हृदय	-5307
▁bless	-5308
▁निदेश	-5309
थि	-5310
ids	-5311
▁अनुवाद	-5312
▁साधारण	-5313
hest	-5314
▁idea	-5315
▁कार्यान्व	-5316
यक	-5317
▁यूर	-5318
▁बनाई	-5319
▁systems	-5320
गो	-5321
वाला	-5322
▁सर्वर	-5323
▁पल	-5324
▁ढांच	-5325
▁allowed	-5326
▁उल	-5327
ints	-5328
ण्श्छ	-5329
▁मतलब	-5330
▁micro	-5331
ण्श्छ्ष्	-5332
4.	-5333
ban	-5334
com	-5335
▁swe	-5336
¤	-5337
ेज	-5338
lam	-5339
ूंगा	-5340
▁famil	-5341
▁values	-5342
ऊण्श्छ्ष्	-5343
▁green	-5344
▁बौद्ध	-5345
▁institution	-5346
फ्	-5347
▁roy	-5348
▁goes	-5349
▁उनपर	-5350
mitted	-5351
▁gold	-5352
▁बढ़ाने	-5353
लाम	-5354
ार्म	-5355
▁नये	-5356
▁फ़र	-5357
▁मिलती	-5358
▁बढ़ावा	-5359
▁पट	-5360
▁ange	-5361
▁thank	-5362
▁परिवर्त	-5363
▁languages	-5364
▁दिये	-5365
▁increased	-5366
▁टुक	-5367
urance	-5368
▁मूर्ति	-5369
व्र	-5370
▁joint	-5371
chan	-5372
▁राह	-5373
iddle	-5374
▁नामक	-5375
▁निरंतर	-5376
▁वास्ते	-5377
acy	-5378
aff	-5379
▁annual	-5380
▁labour	-5381
▁independence	-5382
▁sar	-5383
▁प्रयासों	-5384
▁कट	-5385
▁vict	-5386
▁legal	-5387
▁poetry	-5388
वें	-5389
वर्ती	-5390
▁व्याव	-5391
▁percent	-5392
▁division	-5393
▁प्रतिष्ठ	-5394
▁opportunity	-5395
isf	-5396
दर्शी	-5397
▁charge	-5398
▁प्रोग्राम	-5399
▁remind	-5400
▁officers	-5401
anda	-5402
▁device	-5403
पो	-5404
▁महसूस	-5405
▁व्यक्तिगत	-5406
▁असफल	-5407
▁परीक्षण	-5408
▁आये	-5409
▁ensure	-5410
▁concerned	-5411
▁खाद्य	-5412
▁स्थायी	-5413
▁anal	-5414
▁माता	-5415
▁रेखा	-5416
▁लक्षण	-5417
▁server	-5418
▁pm	-5419
agar	-5420
िश्त	-5421
▁guid	-5422
▁walk	-5423
war	-5424
ालित	-5425
▁आयात	-5426
▁प्रजा	-5427
ient	-5428
▁वाता	-5429
▁sri	-5430
▁शिव	-5431
▁झुठलाया	-5432
▁नोट	-5433
▁बाप	-5434
क्ष्म	-5435
▁होनी	-5436
▁पात्र	-5437
oun	-5438
▁दशा	-5439
▁2015	-5440
▁केन्द	-5441
▁normal	-5442
तो	-5443
यह	-5444
त्‍	-5445
▁page	-5446
▁पत्त	-5447
▁supreme	-5448
▁व्यवसाय	-5449
ेक्ट	-5450
usion	-5451
▁academ	-5452
▁निर्वा	-5453
▁कर्मचारियों	-5454
खर	-5455
खे	-5456
▁bom	-5457
इड	-5458
धर	-5459
ध्या	-5460
▁मुक़	-5461
▁script	-5462
▁अधिकतर	-5463
▁चै	-5464
▁ways	-5465
ney	-5466
▁दर्शन	-5467
▁सम्मिलित	-5468
सन	-5469
▁तरीका	-5470
मैं	-5471
▁felt	-5472
▁वीडियो	-5473
▁सश	-5474
▁ign	-5475
▁हवा	-5476
▁moses	-5477
▁description	-5478
▁break	-5479
▁library	-5480
▁विस्तृत	-5481
.2015	-5482
▁सर्वा	-5483
▁तकनीकी	-5484
▁patient	-5485
ढ़ी	-5486
▁ऊँ	-5487
▁europe	-5488
▁der	-5489
ेन	-5490
▁वाद्य	-5491
बान	-5492
▁कब	-5493
्रेड	-5494
▁attack	-5495
▁instead	-5496
co	-5497
ault	-5498
▁added	-5499
▁middle	-5500
ष्क	-5501
▁pie	-5502
▁काट	-5503
▁फी	-5504
▁paper	-5505
▁अनुप्रयोग	-5506
▁अस्त	-5507
▁ग्राम	-5508
▁रहेगा	-5509
▁संचार	-5510
▁नियमित	-5511
▁डाक	-5512
▁फ़ोल्डर	-5513
ril	-5514
विक	-5515
▁प्रवि	-5516
▁formed	-5517
ौल	-5518
परी	-5519
▁शास	-5520
▁broad	-5521
▁वातावरण	-5522
▁effective	-5523
▁गतिविधियों	-5524
▁सॉ	-5525
ितीय	-5526
▁छवि	-5527
ctors	-5528
▁collection	-5529
▁हिन्दू	-5530
जनक	-5531
▁एफ	-5532
▁dru	-5533
ators	-5534
▁एशिया	-5535
▁coll	-5536
▁becomes	-5537
▁certific	-5538
▁practice	-5539
ायक	-5540
ेगा	-5541
▁base	-5542
▁phot	-5543
▁संगठ	-5544
▁conver	-5545
▁fair	-5546
▁निभा	-5547
▁धीरे	-5548
▁guidance	-5549
▁लोकप्रिय	-5550
▁potential	-5551
▁traditional	-5552
शाला	-5553
▁सत्ता	-5554
▁produced	-5555
▁cells	-5556
तिहासिक	-5557
▁पहुँचा	-5558
▁बिल्कुल	-5559
▁तथ	-5560
▁pros	-5561
osition	-5562
वै	-5563
resh	-5564
▁दीवार	-5565
▁नसीहत	-5566
asa	-5567
खंड	-5568
▁इंडिया	-5569
▁व्याख्या	-5570
ड्ड	-5571
ज़ार	-5572
▁संघर्ष	-5573
ane	-5574
प्रे	-5575
▁कितने	-5576
▁संकेत	-5577
पास	-5578
band	-5579
▁fif	-5580
▁providing	-5581
▁29	-5582
▁cross	-5583
▁मुंबई	-5584
▁supply	-5585
▁finance	-5586
मो	-5587
टिल	-5588
▁निगम	-5589
▁दर्शा	-5590
▁स्वागत	-5591
▁2013	-5592
▁गुनाह	-5593
▁answer	-5594
▁निर्धारण	-5595
▁workers	-5596
racy	-5597
▁कुंजी	-5598
हीम	-5599
▁takes	-5600
▁नृत्य	-5601
▁sym	-5602
▁इतनी	-5603
▁status	-5604
▁muslims	-5605
▁परिस्थित	-5606
बत	-5607
▁opt	-5608
▁click	-5609
▁दायित्व	-5610
ump	-5611
▁कीमत	-5612
▁tried	-5613
▁punjab	-5614
▁essential	-5615
जिए	-5616
▁क्षेत्रीय	-5617
▁$	-5618
तुम	-5619
▁“%	-5620
वजूद	-5621
▁190	-5622
▁समर्	-5623
▁americ	-5624
▁kal	-5625
▁सवाल	-5626
▁scale	-5627
झी	-5628
तरा	-5629
.2016	-5630
▁species	-5631
▁एज	-5632
▁रहो	-5633
▁shown	-5634
णु	-5635
▁code	-5636
▁अक्सर	-5637
▁शास्त	-5638
ंदा	-5639
▁कथा	-5640
▁inside	-5641
िकी	-5642
▁जानी	-5643
▁fixed	-5644
▁समझते	-5645
▁clause	-5646
▁cooperation	-5647
uck	-5648
ume	-5649
▁फूल	-5650
द्यपि	-5651
▁responsibility	-5652
ार्क	-5653
▁aver	-5654
▁प्रत्यक्ष	-5655
vered	-5656
▁looking	-5657
▁accepted	-5658
▁continued	-5659
.)	-5660
याँ	-5661
▁आंत	-5662
्राष्ट्रीय	-5663
▁2,	-5664
न्दर	-5665
भाषा	-5666
ulate	-5667
▁director	-5668
▁significant	-5669
कद	-5670
फे	-5671
head	-5672
▁सित	-5673
▁activity	-5674
▁()	-5675
▁beginning	-5676
▁आत	-5677
eral	-5678
▁deg	-5679
▁घोषणा	-5680
▁पुराने	-5681
▁pack	-5682
▁अस्प	-5683
ंव	-5684
▁अत्या	-5685
▁giving	-5686
ड़ाई	-5687
ुत्व	-5688
▁क्षति	-5689
▁वैश्विक	-5690
▁आत्मा	-5691
▁काव्य	-5692
नियों	-5693
▁contract	-5694
▁C	-5695
▁bow	-5696
▁फसल	-5697
▁अनुकूल	-5698
▁tom	-5699
▁चलता	-5700
▁कार्र	-5701
▁पत्नी	-5702
▁ब्रिटिश	-5703
िमी	-5704
▁खी	-5705
▁वाह	-5706
▁seem	-5707
▁appre	-5708
▁islam	-5709
▁जहन्नुम	-5710
ांकि	-5711
▁खड़े	-5712
▁सूर्	-5713
वान्वेष	-5714
▁पार्टी	-5715
▁यद्यपि	-5716
▁provision	-5717
▁transport	-5718
▁daugh	-5719
▁refers	-5720
▁अत्यधिक	-5721
oted	-5722
▁स्‍	-5723
▁hosp	-5724
▁(%	-5725
न्नत	-5726
▁चढ़	-5727
लाल	-5728
▁arri	-5729
▁मात्र	-5730
▁छोड़कर	-5731
▁निधि	-5732
▁समाचार	-5733
tt	-5734
▁ban	-5735
▁नोड	-5736
तृत्व	-5737
▁wood	-5738
▁statement	-5739
▁assistance	-5740
र्न	-5741
नाएं	-5742
▁sn	-5743
घाटन	-5744
▁bihar	-5745
▁units	-5746
▁धा	-5747
त्तर	-5748
▁जुड़े	-5749
▁मार्च	-5750
▁सामना	-5751
्प	-5752
णों	-5753
▁(19	-5754
▁unf	-5755
▁माह	-5756
▁समस्याओं	-5757
▁responsible	-5758
▁हार	-5759
▁लगाने	-5760
▁नियुक्त	-5761
▁खुश	-5762
▁unable	-5763
▁software	-5764
श्त	-5765
िल्म	-5766
▁assess	-5767
▁numbers	-5768
▁opportunities	-5769
▁डाटा	-5770
सब	-5771
3⁄4	-5772
▁फे	-5773
▁serious	-5774
जय	-5775
अलग	-5776
▁nations	-5777
▁हालांकि	-5778
▁agreement	-5779
▁scientific	-5780
oe	-5781
¤3⁄4	-5782
▁largest	-5783
▁hor	-5784
प्ताह	-5785
▁else	-5786
▁ideas	-5787
▁पुकार	-5788
लेज	-5789
▁चेह	-5790
▁गहरा	-5791
▁गुरु	-5792
▁dh	-5793
ifest	-5794
▁गंगा	-5795
▁measure	-5796
▁generation	-5797
▁gradu	-5798
▁purch	-5799
▁terror	-5800
ॉँ	-5801
डिया	-5802
taining	-5803
▁stories	-5804
▁regional	-5805
यण	-5806
▁poll	-5807
▁inaug	-5808
▁active	-5809
▁लेखक	-5810
▁अनुमान	-5811
▁festival	-5812
ama	-5813
▁fre	-5814
▁आंक	-5815
▁मॉड	-5816
ervation	-5817
▁सूक्ष्म	-5818
दिक	-5819
▁fra	-5820
▁placed	-5821
ging	-5822
▁eye	-5823
▁लम्	-5824
▁mode	-5825
▁sett	-5826
▁क्रा	-5827
▁knowing	-5828
▁अंतरराष्ट्रीय	-5829
.,	-5830
encies	-5831
▁ay	-5832
▁tag	-5833
▁द्वार	-5834
▁cities	-5835
▁located	-5836
वाली	-5837
▁पाठ्य	-5838
▁ऐतिहासिक	-5839
▁चुनें	-5840
▁employees	-5841
▁protection	-5842
▁एल	-5843
▁प्रायः	-5844
▁imag	-5845
▁compl	-5846
▁बिक्री	-5847
▁बुनिया	-5848
▁नवान्वेष	-5849
:-	-5850
▁ara	-5851
▁bey	-5852
▁अनुप	-5853
▁विनिर्	-5854
▁concept	-5855
la	-5856
▁types	-5857
▁कल्पना	-5858
▁प्रतीक	-5859
ुता	-5860
▁बजे	-5861
▁क्लिक	-5862
▁satisf	-5863
0.	-5864
▁pand	-5865
▁skin	-5866
▁हाला	-5867
▁gardens	-5868
▁tal	-5869
▁अके	-5870
▁गरीब	-5871
▁बाग़	-5872
▁आयोजन	-5873
▁houses	-5874
▁college	-5875
चित्र	-5876
▁army	-5877
estern	-5878
▁limit	-5879
▁week	-5880
well	-5881
▁देखो	-5882
▁बन्दों	-5883
▁ब्याज	-5884
▁स्वामी	-5885
▁villages	-5886
utta	-5887
▁शुभकाम	-5888
ह्न	-5889
▁original	-5890
षक	-5891
दूस	-5892
▁dy	-5893
▁ऑन	-5894
वाही	-5895
▁वेतन	-5896
▁समझा	-5897
▁graph	-5898
▁शिकायत	-5899
▁covered	-5900
▁इकाई	-5901
▁bomb	-5902
▁shah	-5903
▁बैठे	-5904
▁dance	-5905
▁united	-5906
▁undertak	-5907
न्‍	-5908
क्षेप	-5909
▁अपील	-5910
▁35	-5911
▁टन	-5912
▁feet	-5913
ashm	-5914
▁चिं	-5915
▁bear	-5916
▁card	-5917
▁mail	-5918
▁chair	-5919
▁मिश्र	-5920
▁बावजूद	-5921
न्स	-5922
▁लक	-5923
▁desp	-5924
▁परिषद	-5925
▁running	-5926
▁standard	-5927
▁महत्त्वपूर्ण	-5928
▁प्ल	-5929
▁gone	-5930
▁final	-5931
▁शुरुआ	-5932
▁memory	-5933
▁अभियान	-5934
what	-5935
च्छेद	-5936
▁करीब	-5937
बराहीम	-5938
▁beyond	-5939
शय	-5940
हरे	-5941
▁fal	-5942
▁उत्स	-5943
▁प्रशासन	-5944
ancy	-5945
▁autom	-5946
▁चुनाव	-5947
▁तुर	-5948
▁pict	-5949
▁prosper	-5950
▁torment	-5951
▁द्र	-5952
▁लंब	-5953
▁dark	-5954
▁रखें	-5955
▁shows	-5956
▁style	-5957
▁मूल्या	-5958
▁innovation	-5959
हीन	-5960
▁कल्या	-5961
▁चारों	-5962
▁article	-5963
ंटे	-5964
्रिया	-5965
▁विशेषता	-5966
▁administration	-5967
न्त्र	-5968
▁dram	-5969
▁stor	-5970
reg	-5971
▁जहा	-5972
▁बजा	-5973
▁फैला	-5974
▁apply	-5975
▁heard	-5976
▁श्रेणी	-5977
▁returned	-5978
lt	-5979
▁sold	-5980
▁खुशी	-5981
▁तर्क	-5982
▁कितनी	-5983
वासियों	-5984
-19	-5985
▁चम	-5986
araoh	-5987
▁strugg	-5988
▁बुद्धि	-5989
▁attract	-5990
▁complex	-5991
▁receive	-5992
hra	-5993
धों	-5994
▁western	-5995
▁विरुद्ध	-5996
▁increasing	-5997
भूम	-5998
ंखला	-5999
मीटर	-6000
▁भागों	-6001
ami	-6002
att	-6003
▁ध्व	-6004
▁केन्द्रीय	-6005
▁contribution	-6006
जीव	-6007
▁gh	-6008
▁hot	-6009
▁सरक	-6010
▁यूरोप	-6011
▁दूरी	-6012
फर	-6013
क़्त	-6014
▁दुख	-6015
▁उम्र	-6016
▁परियोजनाओं	-6017
bi	-6018
▁aw	-6019
▁मां	-6020
▁lies	-6021
▁उत्कृष्ट	-6022
▁तेज	-6023
▁लड़के	-6024
▁performance	-6025
▁5.	-6026
▁revel	-6027
iva	-6028
atures	-6029
▁quick	-6030
▁parties	-6031
▁प्रयुक्त	-6032
▁करनेवालों	-6033
▁implementation	-6034
ns	-6035
▁लगातार	-6036
▁associated	-6037
▁ic	-6038
▁मस	-6039
▁fulf	-6040
▁moment	-6041
ठे	-6042
▁मल	-6043
▁hath	-6044
▁democracy	-6045
▁मीटर	-6046
ashmir	-6047
▁इबराहीम	-6048
वहन	-6049
▁vision	-6050
2,	-6051
करी	-6052
▁evidence	-6053
▁जाँच	-6054
▁उद्घाटन	-6055
▁2016	-6056
▁ब्रह	-6057
▁रास्ता	-6058
▁provisions	-6059
▁पूछा	-6060
▁जानवर	-6061
▁successful	-6062
▁अद	-6063
▁web	-6064
▁कृष्ण	-6065
▁जिनका	-6066
erc	-6067
▁wid	-6068
▁पूजा	-6069
▁बयान	-6070
▁doubt	-6071
▁जीवित	-6072
▁pak	-6073
▁load	-6074
▁mere	-6075
▁ग्रंथ	-6076
▁female	-6077
▁एच	-6078
▁दूध	-6079
▁stre	-6080
▁previous	-6081
▁(2)	-6082
राज्य	-6083
▁uttar	-6084
▁पुत्र	-6085
▁मिलकर	-6086
uration	-6087
▁कार्यक्रमों	-6088
▁S	-6089
▁लेता	-6090
▁श्रृ	-6091
▁funds	-6092
▁understanding	-6093
▁safe	-6094
▁इस्ला	-6095
पान	-6096
साब	-6097
▁symb	-6098
▁team	-6099
this	-6100
▁bang	-6101
▁virt	-6102
▁tamil	-6103
▁particularly	-6104
has	-6105
चीत	-6106
ुमार	-6107
▁direction	-6108
▁ju	-6109
▁लेन	-6110
▁खाना	-6111
ग़म्बर	-6112
▁remove	-6113
रिका	-6114
▁ker	-6115
▁oct	-6116
▁दर्द	-6117
▁categ	-6118
▁अधिकतम	-6119
▁कुशल	-6120
▁राजन	-6121
▁स्थानों	-6122
▁spiritual	-6123
▁revolution	-6124
▁ago	-6125
iture	-6126
▁संबोध	-6127
उट	-6128
▁शक	-6129
स्वी	-6130
▁बेच	-6131
▁देवी	-6132
▁मौसम	-6133
▁थोड़ा	-6134
▁sudden	-6135
▁assembly	-6136
त्न	-6137
▁शो	-6138
पादन	-6139
▁wel	-6140
▁कहो	-6141
▁दवा	-6142
▁integr	-6143
▁टाइ	-6144
▁अप्र	-6145
▁विद्यार्थियों	-6146
word	-6147
▁afric	-6148
▁quran	-6149
▁challeng	-6150
मान्य	-6151
रान	-6152
सभा	-6153
▁emb	-6154
▁डरा	-6155
▁apart	-6156
▁मिशन	-6157
▁सूर्य	-6158
वक	-6159
▁chann	-6160
▁गुजरात	-6161
▁schemes	-6162
▁benefits	-6163
पों	-6164
्यार	-6165
ड़ियों	-6166
▁हाथों	-6167
▁उपयोगी	-6168
▁nav	-6169
ressed	-6170
▁table	-6171
▁calcutta	-6172
▁प्रोट	-6173
ूँगा	-6174
▁छुट	-6175
▁knew	-6176
▁angels	-6177
▁regarding	-6178
▁dream	-6179
▁extra	-6180
▁hearts	-6181
कारात्मक	-6182
▁someone	-6183
¥	-6184
▁कथ	-6185
▁आतंक	-6186
▁भाषण	-6187
▁तट	-6188
▁साम्रा	-6189
▁संपूर्ण	-6190
▁relationship	-6191
▁नियमों	-6192
▁संबंधों	-6193
ades	-6194
चलित	-6195
▁अंध	-6196
▁gujarat	-6197
नाम	-6198
rest	-6199
▁गाय	-6200
▁स्वरूप	-6201
▁सुबह	-6202
▁बीमारी	-6203
▁पश्चिमी	-6204
▁sik	-6205
▁ship	-6206
▁प्रार्थ	-6207
ulpt	-6208
▁sen	-6209
ength	-6210
▁ज़रूर	-6211
▁strateg	-6212
▁नेतृत्व	-6213
▁कार्रवाई	-6214
ूक	-6215
▁hus	-6216
oured	-6217
▁laws	-6218
▁बनने	-6219
▁पर्यटन	-6220
rog	-6221
परि	-6222
▁die	-6223
▁steps	-6224
▁sculpt	-6225
▁kashmir	-6226
▁हट	-6227
▁heaven	-6228
▁बातचीत	-6229
▁balance	-6230
▁summ	-6231
▁teachers	-6232
ुस	-6233
▁हिंदू	-6234
▁reading	-6235
▁I	-6236
क्का	-6237
▁rrb	-6238
▁कल्याण	-6239
▁ant	-6240
▁cere	-6241
▁अभिव्य	-6242
▁attention	-6243
wise	-6244
क्ट्र	-6245
भाग्य	-6246
▁bond	-6247
▁जनवरी	-6248
▁bharat	-6249
aste	-6250
asth	-6251
भूमि	-6252
▁चैन	-6253
riage	-6254
▁ठहरा	-6255
▁वितरण	-6256
▁twenty	-6257
▁प्राप्ति	-6258
ilit	-6259
▁मंज	-6260
दूसरे	-6261
श्मीर	-6262
▁रहें	-6263
▁पुनर्	-6264
▁arrange	-6265
▁व्यय	-6266
▁प्रशास	-6267
▁हिस्से	-6268
▁setting	-6269
ॉप	-6270
ley	-6271
iation	-6272
▁स्वच्छ	-6273
म्म	-6274
्राफ	-6275
▁स्थल	-6276
▁आपूर्ति	-6277
▁मछ	-6278
etic	-6279
▁नाट	-6280
iveness	-6281
▁contains	-6282
▁standards	-6283
inent	-6284
▁figure	-6285
▁notice	-6286
ट्र	-6287
▁मध	-6288
kind	-6289
▁रखो	-6290
▁2005	-6291
▁खाने	-6292
▁माँग	-6293
▁लिखने	-6294
▁presence	-6295
ze	-6296
rep	-6297
▁mou	-6298
▁yes	-6299
▁उत्तम	-6300
▁देखभाल	-6301
▁connection	-6302
रेलू	-6303
▁und	-6304
▁पाकि	-6305
▁proceed	-6306
▁thr	-6307
▁insurance	-6308
नांक	-6309
▁पीठ	-6310
▁चलते	-6311
▁false	-6312
▁इन्हें	-6313
▁purposes	-6314
▁april	-6315
▁highest	-6316
▁vo	-6317
▁bod	-6318
▁ख़ु	-6319
▁विवाद	-6320
▁विशेषज्ञ	-6321
▁procedure	-6322
▁पाई	-6323
▁सुभाष	-6324
भारत	-6325
▁2006	-6326
▁शेयर	-6327
▁खिलाफ	-6328
▁verses	-6329
▁हालत	-6330
▁hours	-6331
▁manag	-6332
▁animal	-6333
▁petition	-6334
inion	-6335
णिज्य	-6336
▁देखकर	-6337
7,	-6338
▁बुनियादी	-6339
ey	-6340
cks	-6341
्यो	-6342
▁विध	-6343
▁worth	-6344
▁destroyed	-6345
▁तभी	-6346
▁दोष	-6347
▁मिन	-6348
▁शाह	-6349
▁gods	-6350
▁क़सम	-6351
▁fruit	-6352
▁ग्रहण	-6353
▁prophet	-6354
▁specified	-6355
▁जिला	-6356
▁subsc	-6357
▁दिखाया	-6358
▁विश्ले	-6359
रेट	-6360
ित्त	-6361
▁कौशल	-6362
▁प्रेरित	-6363
▁egg	-6364
▁qual	-6365
▁lrb	-6366
▁सुख	-6367
▁symbol	-6368
ड़ने	-6369
▁dial	-6370
▁विफल	-6371
▁content	-6372
▁external	-6373
▁लोकतंत्र	-6374
▁certificate	-6375
ुल्	-6376
▁आंख	-6377
▁chap	-6378
ites	-6379
▁vac	-6380
▁वाद	-6381
▁मुश्	-6382
▁इंज	-6383
▁archit	-6384
▁electric	-6385
▁technical	-6386
▁औष	-6387
्रैल	-6388
▁भौतिक	-6389
▁desire	-6390
▁जायेगा	-6391
▁सभ	-6392
oting	-6393
▁तारी	-6394
▁सत्या	-6395
▁अप्रैल	-6396
▁separate	-6397
▁processing	-6398
▁@	-6399
ipur	-6400
▁trees	-6401
ras	-6402
▁grand	-6403
▁कोर्इ	-6404
▁बदलाव	-6405
▁शुभकामनाएं	-6406
pri	-6407
abor	-6408
▁नजर	-6409
▁guru	-6410
▁range	-6411
▁manifest	-6412
▁speaking	-6413
▁अभिले	-6414
▁wishes	-6415
▁अमेरिका	-6416
▁करनेवाला	-6417
nces	-6418
▁ईसा	-6419
▁fully	-6420
▁assign	-6421
तल	-6422
ानु	-6423
▁online	-6424
▁प्रचार	-6425
▁measures	-6426
▁organisation	-6427
▁फेर	-6428
वृत्त	-6429
▁occup	-6430
▁रास्ते	-6431
▁correct	-6432
▁connected	-6433
▁बीज	-6434
▁chem	-6435
▁forces	-6436
▁mountains	-6437
▁construction	-6438
▁बंध	-6439
▁soil	-6440
▁पराम	-6441
▁आकाशों	-6442
▁बैंकों	-6443
equ	-6444
anath	-6445
▁scre	-6446
▁servants	-6447
▁सर्वाधिक	-6448
बारा	-6449
ially	-6450
▁quant	-6451
▁घरेलू	-6452
uls	-6453
▁flu	-6454
▁exerc	-6455
▁frame	-6456
▁heavy	-6457
▁offer	-6458
▁enable	-6459
▁immediately	-6460
nal	-6461
▁खेती	-6462
▁length	-6463
▁mentioned	-6464
नु	-6465
ायी	-6466
▁sex	-6467
▁recomm	-6468
osis	-6469
▁भ्र	-6470
▁साझी	-6471
▁names	-6472
▁फॉ	-6473
oved	-6474
कालय	-6475
▁weak	-6476
▁कठोर	-6477
▁default	-6478
▁reflect	-6479
▁gandhiji	-6480
▁प्रार्थना	-6481
▁बू	-6482
▁entry	-6483
▁तीव्र	-6484
▁unique	-6485
▁useful	-6486
▁सप्ताह	-6487
▁खुले	-6488
▁master	-6489
क्म	-6490
▁विद्युत	-6491
char	-6492
osing	-6493
▁प्रच	-6494
▁मिटा	-6495
▁appreci	-6496
र्ट	-6497
▁sky	-6498
anced	-6499
▁अल्प	-6500
▁हिसाब	-6501
▁played	-6502
▁संशोधन	-6503
वली	-6504
िकल	-6505
▁warm	-6506
▁तकनीक	-6507
▁बनाकर	-6508
▁affairs	-6509
load	-6510
एँगे	-6511
▁sle	-6512
▁दीर्	-6513
▁travel	-6514
लिम	-6515
light	-6516
▁indians	-6517
rown	-6518
ेंशन	-6519
▁model	-6520
▁ready	-6521
▁कठिना	-6522
▁internet	-6523
▁perf	-6524
▁speed	-6525
▁अनुसू	-6526
▁डिस्क	-6527
क्तियों	-6528
▁divided	-6529
दिन	-6530
▁बनाते	-6531
▁expend	-6532
▁disci	-6533
▁leaves	-6534
▁कर्मचारी	-6535
ियल	-6536
ucle	-6537
िश्ते	-6538
▁जमीन	-6539
▁सच्चे	-6540
▁existing	-6541
वीय	-6542
akes	-6543
▁mid	-6544
▁भूल	-6545
▁review	-6546
▁उन्हीं	-6547
sy	-6548
▁मंच	-6549
वित्र	-6550
▁उठाए	-6551
▁वृक्ष	-6552
▁परामर्श	-6553
▁मार्गदर्शन	-6554
वर्ष	-6555
▁पर्व	-6556
▁हस्त	-6557
▁आसानी	-6558
▁mechan	-6559
▁वाणिज्य	-6560
▁प्रावधान	-6561
▁transform	-6562
▁governance	-6563
धीन	-6564
लग्न	-6565
▁aug	-6566
▁जटिल	-6567
▁भेजे	-6568
▁powers	-6569
▁hearing	-6570
▁questions	-6571
▁दै	-6572
▁tit	-6573
▁खड़ा	-6574
▁विवे	-6575
▁machine	-6576
▁straight	-6577
);	-6578
▁du	-6579
iers	-6580
जूदा	-6581
▁2020	-6582
▁लंबा	-6583
▁सत्र	-6584
porary	-6585
ल्ड	-6586
ल्स	-6587
▁आठ	-6588
▁गल	-6589
▁tiss	-6590
ateral	-6591
▁मूल्यांकन	-6592
ww	-6593
वट	-6594
with	-6595
सायन	-6596
▁male	-6597
▁कार्ड	-6598
▁विमान	-6599
▁krishna	-6600
▁lad	-6601
▁भाषाओं	-6602
▁commercial	-6603
ober	-6604
▁किलो	-6605
ashtra	-6606
▁संसाधनों	-6607
ae	-6608
▁ट्र	-6609
▁फाय	-6610
▁एकत्र	-6611
आन	-6612
गण	-6613
▁km	-6614
▁189	-6615
▁देर	-6616
▁साधन	-6617
▁सारा	-6618
▁staff	-6619
▁भारती	-6620
ton	-6621
cast	-6622
▁कहान	-6623
▁probably	-6624
मेल	-6625
्वर	-6626
▁आनंद	-6627
▁watch	-6628
▁समृद्ध	-6629
30	-6630
ingu	-6631
▁आंतरिक	-6632
▁mankind	-6633
▁प्रभुत्व	-6634
▁construct	-6635
ूबर	-6636
क्षिक	-6637
वेक्षण	-6638
▁named	-6639
▁देखें	-6640
▁maximum	-6641
▁session	-6642
▁मुश्किल	-6643
मिन	-6644
▁आख	-6645
owed	-6646
▁mob	-6647
▁नेहर	-6648
▁pad	-6649
▁परा	-6650
itary	-6651
▁परेश	-6652
▁chrom	-6653
▁stock	-6654
▁promise	-6655
▁अंतर्राष्ट्रीय	-6656
िज	-6657
▁favour	-6658
सीय	-6659
ज़िल	-6660
▁कानूनी	-6661
▁consist	-6662
▁results	-6663
▁includes	-6664
रणा	-6665
क्षी	-6666
▁खींच	-6667
▁बिहार	-6668
▁मानसिक	-6669
▁referred	-6670
▁साब	-6671
▁rout	-6672
▁regul	-6673
▁thinking	-6674
iling	-6675
▁मौजूदा	-6676
pro	-6677
ख़ुदा	-6678
▁cash	-6679
▁ख़बर	-6680
▁january	-6681
▁administr	-6682
▁educational	-6683
▁media	-6684
▁pleas	-6685
▁पढ़ने	-6686
▁गाँ	-6687
▁इतने	-6688
▁प्ले	-6689
▁veget	-6690
▁additional	-6691
ishn	-6692
▁कलक	-6693
▁changed	-6694
¤°	-6695
ंकर	-6696
खिम	-6697
ching	-6698
क्षीय	-6699
▁site	-6700
▁शुरुआत	-6701
▁documents	-6702
¥	-6703
लिक	-6704
▁रोगी	-6705
ocation	-6706
▁consult	-6707
▁governments	-6708
▁जून	-6709
▁पेड़	-6710
ken	-6711
▁cry	-6712
▁tur	-6713
▁इंग	-6714
मात्र	-6715
▁लिखी	-6716
▁वर्षा	-6717
▁सैनिक	-6718
▁स्मृति	-6719
▁advance	-6720
यें	-6721
▁बोले	-6722
▁option	-6723
▁propos	-6724
▁functions	-6725
8,	-6726
ora	-6727
iment	-6728
▁circum	-6729
▁messengers	-6730
▁>>	-6731
▁weight	-6732
संग	-6733
▁focus	-6734
▁temper	-6735
▁universities	-6736
▁गीत	-6737
▁स्त्री	-6738
▁december	-6739
▁standing	-6740
मर	-6741
pper	-6742
स्पर	-6743
▁sad	-6744
▁इले	-6745
▁pattern	-6746
oms	-6747
▁तमिल	-6748
संख्या	-6749
▁looked	-6750
▁संस्थाओं	-6751
▁प्रोत्साहन	-6752
ँकि	-6753
▁बाहरी	-6754
▁शैतान	-6755
स्तिष्क	-6756
▁distin	-6757
▁attempt	-6758
▁conscious	-6759
▁प्रतिक्रिया	-6760
▁सज	-6761
▁repe	-6762
▁बुद्ध	-6763
▁medium	-6764
▁square	-6765
▁उत्पादों	-6766
▁खूब	-6767
▁नियत	-6768
▁longer	-6769
amb	-6770
न्दा	-6771
मतौर	-6772
enced	-6773
▁किरा	-6774
believers	-6775
▁वर	-6776
▁gar	-6777
icial	-6778
त्मिक	-6779
▁surface	-6780
▁नमा	-6781
▁मेल	-6782
aches	-6783
lfare	-6784
▁enem	-6785
section	-6786
नेवालों	-6787
▁welfare	-6788
▁revealed	-6789
iii	-6790
बले	-6791
lied	-6792
▁sides	-6793
▁दोस्त	-6794
▁defence	-6795
▁distance	-6796
▁उद्योगों	-6797
ंका	-6798
ालत	-6799
▁box	-6800
though	-6801
▁items	-6802
▁स्त्र	-6803
▁congrat	-6804
▁muhammad	-6805
डु	-6806
जोर	-6807
▁neh	-6808
▁effort	-6809
▁garden	-6810
▁बहा	-6811
▁nucle	-6812
▁opened	-6813
▁squared	-6814
कभी	-6815
▁कोल	-6816
▁शोध	-6817
▁सौंप	-6818
▁हुक्म	-6819
▁architect	-6820
▁परिस्थितियों	-6821
▁काग	-6822
iting	-6823
▁risk	-6824
▁शारी	-6825
ground	-6826
▁block	-6827
▁prayer	-6828
▁सेवाएं	-6829
▁तौ	-6830
aily	-6831
▁फैस	-6832
idden	-6833
▁ट्रै	-6834
▁निरा	-6835
▁हानि	-6836
▁कराने	-6837
▁पशु	-6838
▁emph	-6839
▁जोखिम	-6840
▁बॉ	-6841
▁अस्थ	-6842
▁सिक्	-6843
cribed	-6844
▁दिनांक	-6845
▁directly	-6846
rene	-6847
▁चीन	-6848
▁माप	-6849
▁सख्त	-6850
▁print	-6851
▁advice	-6852
▁depend	-6853
▁territ	-6854
enth	-6855
द्धा	-6856
▁निपट	-6857
▁truly	-6858
▁former	-6859
देन	-6860
▁समी	-6861
▁hospital	-6862
▁पाकिस्तान	-6863
ुत्	-6864
▁मांस	-6865
▁विरा	-6866
".	-6867
1,	-6868
set	-6869
▁आश्च	-6870
▁growing	-6871
ड्	-6872
▁pil	-6873
▁pharaoh	-6874
▁storage	-6875
],	-6876
ayan	-6877
abled	-6878
स्लिम	-6879
▁magn	-6880
▁अमरी	-6881
फ्टवेयर	-6882
▁belongs	-6883
▁प्रतिनिध	-6884
▁corporation	-6885
▁आइ	-6886
▁songs	-6887
erous	-6888
िकाओं	-6889
▁temples	-6890
ply	-6891
vant	-6892
▁जाकर	-6893
▁आमतौर	-6894
▁promotion	-6895
▁मास	-6896
▁sacr	-6897
▁नष्ट	-6898
▁reforms	-6899
▁studies	-6900
▁expression	-6901
ini	-6902
धीश	-6903
▁36	-6904
ालिम	-6905
▁defin	-6906
▁branch	-6907
रिया	-6908
्रीन	-6909
▁एका	-6910
▁करवा	-6911
▁किस्म	-6912
▁observed	-6913
कलन	-6914
▁श्व	-6915
▁हल्	-6916
▁burn	-6917
▁चिह्न	-6918
▁प्रतिभा	-6919
▁struggle	-6920
▁नागरिकों	-6921
▁nehru	-6922
▁island	-6923
▁trying	-6924
▁average	-6925
▁pakistan	-6926
▁esc	-6927
▁अनुच्छेद	-6928
▁कक्ष	-6929
▁bombay	-6930
▁choose	-6931
▁needed	-6932
▁पवित्र	-6933
▁सर्वोच्च	-6934
छा	-6935
▁miss	-6936
▁lines	-6937
▁किनारे	-6938
▁flo	-6939
▁अफ्री	-6940
▁leader	-6941
▁granted	-6942
ext	-6943
use	-6944
▁laid	-6945
▁उत्सा	-6946
▁release	-6947
▁आकर्षित	-6948
▁although	-6949
व्या	-6950
▁ton	-6951
▁मनो	-6952
▁शिश	-6953
▁poems	-6954
▁severe	-6955
▁विषयों	-6956
▁returns	-6957
▁hereafter	-6958
▁प्रसन्नता	-6959
▁कीट	-6960
▁पंजाब	-6961
▁मैदान	-6962
▁दूसरों	-6963
▁remained	-6964
itted	-6965
icated	-6966
▁greet	-6967
▁लकड़ी	-6968
▁परस्पर	-6969
▁foundation	-6970
',	-6971
▁एकल	-6972
▁सजा	-6973
▁literary	-6974
ero	-6975
फार	-6976
▁भली	-6977
▁foot	-6978
▁ड्रा	-6979
▁दृढ़	-6980
▁daily	-6981
▁छात्रों	-6982
▁शारीरिक	-6983
▁governor	-6984
▁powerful	-6985
नर	-6986
पुट	-6987
ियत	-6988
▁छूट	-6989
▁आध्या	-6990
▁संस्करण	-6991
▁domestic	-6992
▁झग	-6993
▁मंड	-6994
▁prevent	-6995
▁families	-6996
▁उद	-6997
▁दंड	-6998
▁bhag	-6999
▁सड़क	-7000
▁न्यून	-7001
▁constant	-7002
-0	-7003
▁धो	-7004
▁बुरी	-7005
▁जाएंगे	-7006
▁husband	-7007
मिट	-7008
▁भरो	-7009
▁मेहर	-7010
▁संपाद	-7011
▁parents	-7012
शो	-7013
सायिक	-7014
▁आश्चर्य	-7015
▁election	-7016
▁root	-7017
▁sept	-7018
▁expenditure	-7019
ga	-7020
▁पैर	-7021
▁nove	-7022
▁सुझा	-7023
▁lived	-7024
▁बीमार	-7025
▁centres	-7026
ोम	-7027
▁गैस	-7028
▁अकबर	-7029
▁involved	-7030
▁association	-7031
▁compon	-7032
▁संचालन	-7033
dra	-7034
▁lie	-7035
arily	-7036
▁यूनि	-7037
▁समन्व	-7038
▁kerala	-7039
भु	-7040
▁75	-7041
▁अख	-7042
atha	-7043
▁nod	-7044
ंपरिक	-7045
▁संवर्	-7046
▁प्रतिनिधित्व	-7047
ene	-7048
ंदु	-7049
▁सहज	-7050
rated	-7051
▁serve	-7052
▁ऑनलाइन	-7053
▁वाक़	-7054
▁china	-7055
ression	-7056
▁अनुरोध	-7057
▁variety	-7058
▁appropri	-7059
शास्त	-7060
▁दर्ज	-7061
▁मैने	-7062
▁साम्राज्य	-7063
▁पस	-7064
▁गौर	-7065
▁जरूर	-7066
▁लाइन	-7067
्वा	-7068
▁उड़	-7069
ensive	-7070
▁resol	-7071
▁cultiv	-7072
▁schools	-7073
▁महाराष्ट्र	-7074
▁मई	-7075
▁blind	-7076
▁कितना	-7077
ंघ	-7078
▁dut	-7079
▁inj	-7080
▁सूर	-7081
▁reven	-7082
▁युक्त	-7083
▁possess	-7084
▁6.	-7085
▁pred	-7086
▁नमाज़	-7087
▁बदलने	-7088
▁guided	-7089
▁partnership	-7090
द्री	-7091
▁विनि	-7092
▁विज्ञ	-7093
▁पहुंचा	-7094
साद	-7095
ाले	-7096
▁केरल	-7097
▁पृथ्वी	-7098
aksh	-7099
ogle	-7100
ublic	-7101
▁quar	-7102
▁resur	-7103
▁kingdom	-7104
▁प्रेरणा	-7105
no	-7106
्याग	-7107
▁बाग	-7108
ilateral	-7109
▁remains	-7110
▁applications	-7111
यम	-7112
order	-7113
▁rise	-7114
▁स्वर	-7115
▁द्वीप	-7116
▁attend	-7117
▁minimum	-7118
▁rank	-7119
▁समक्ष	-7120
▁causes	-7121
▁easily	-7122
▁planning	-7123
▁सुविधाओं	-7124
ighb	-7125
▁htt	-7126
inate	-7127
▁fert	-7128
▁gets	-7129
▁चयनित	-7130
▁ज़ालिम	-7131
▁promote	-7132
▁sustain	-7133
हि	-7134
न्ना	-7135
▁मानक	-7136
▁नेहरू	-7137
▁perman	-7138
▁पाठ्यक्रम	-7139
▁maharashtra	-7140
माने	-7141
लिंग	-7142
▁लाया	-7143
▁electron	-7144
▁developing	-7145
▁तल	-7146
▁wild	-7147
▁resource	-7148
▁completed	-7149
ताव	-7150
tion	-7151
▁gas	-7152
▁rivers	-7153
ंटी	-7154
onst	-7155
▁जेल	-7156
▁fish	-7157
▁लंबे	-7158
▁emphas	-7159
▁पंजीकरण	-7160
▁हालाँकि	-7161
ॉन	-7162
resp	-7163
▁गठन	-7164
▁germ	-7165
▁आध्यात्मिक	-7166
▁भय	-7167
▁188	-7168
▁आसपास	-7169
▁संलग्न	-7170
▁november	-7171
▁throughout	-7172
▁इकट	-7173
▁inaugur	-7174
▁श्रृंखला	-7175
.2013	-7176
▁उपबंध	-7177
▁लिखित	-7178
क्षेत्र	-7179
▁season	-7180
▁insects	-7181
▁described	-7182
▁seems	-7183
▁neighb	-7184
▁stream	-7185
▁respond	-7186
▁marriage	-7187
वह	-7188
▁संकट	-7189
▁leading	-7190
▁अस्तित्व	-7191
▁operations	-7192
नल	-7193
गारों	-7194
▁everyone	-7195
▁influence	-7196
▁A	-7197
्टर	-7198
▁स्तंभ	-7199
▁examination	-7200
ops	-7201
गढ़	-7202
▁fields	-7203
▁sister	-7204
▁resident	-7205
▁पारंपरिक	-7206
arma	-7207
▁gov	-7208
चारिक	-7209
▁karn	-7210
▁कलकत्ता	-7211
▁संबोधित	-7212
▁messages	-7213
▁इंजीन	-7214
▁prepar	-7215
▁ग्राहक	-7216
▁october	-7217
▁distribution	-7218
देह	-7219
rist	-7220
▁lok	-7221
▁pure	-7222
idy	-7223
ows	-7224
tered	-7225
▁sand	-7226
▁जिले	-7227
▁दावा	-7228
▁मस्तिष्क	-7229
▁nay	-7230
▁औसत	-7231
▁माइ	-7232
▁2007	-7233
▁urban	-7234
▁फिल्म	-7235
▁adopted	-7236
▁evening	-7237
▁passing	-7238
any	-7239
pid	-7240
▁01	-7241
ests	-7242
▁आकृति	-7243
▁appoint	-7244
▁प्रकाशन	-7245
▁भागीदारी	-7246
▁communication	-7247
▁3,	-7248
▁छह	-7249
▁crops	-7250
▁imper	-7251
▁anyone	-7252
▁नाज़िल	-7253
▁ah	-7254
दायत	-7255
▁इनका	-7256
▁prost	-7257
▁करेगी	-7258
▁opening	-7259
▁diseases	-7260
▁पैग़म्बर	-7261
▁je	-7262
▁ताप	-7263
▁दरवा	-7264
▁integ	-7265
lection	-7266
▁उत	-7267
▁rupe	-7268
▁वहीं	-7269
▁श्रम	-7270
ुस्तान	-7271
▁philosophy	-7272
दो	-7273
पू	-7274
ils	-7275
जात	-7276
अपने	-7277
▁huge	-7278
▁execut	-7279
माम	-7280
▁सुल	-7281
▁शहरों	-7282
▁worked	-7283
▁अन्तर्	-7284
▁element	-7285
▁facilit	-7286
▁organization	-7287
▁lack	-7288
▁africa	-7289
▁चुनौती	-7290
▁tomorrow	-7291
▁इकट्	-7292
▁assam	-7293
▁valid	-7294
▁लेंगे	-7295
▁introduced	-7296
मार्	-7297
▁कदा	-7298
▁arab	-7299
▁moon	-7300
▁घंटे	-7301
▁जरिए	-7302
▁eleph	-7303
▁mouth	-7304
▁पूर्वी	-7305
▁बाँ	-7306
▁देकर	-7307
▁जिनकी	-7308
▁त्वचा	-7309
▁स्थिर	-7310
▁consequ	-7311
▁अर्थात्	-7312
▁समर्पित	-7313
दीय	-7314
▁धु	-7315
▁सराह	-7316
▁dated	-7317
▁recent	-7318
▁reference	-7319
▁32	-7320
▁fat	-7321
▁mun	-7322
वर्तन	-7323
▁asia	-7324
▁input	-7325
▁हिंदी	-7326
▁awards	-7327
▁helped	-7328
adi	-7329
oles	-7330
▁फ़िर	-7331
▁equip	-7332
▁prose	-7333
▁sight	-7334
road	-7335
▁500	-7336
▁दाह	-7337
izing	-7338
▁larger	-7339
▁बिलकुल	-7340
▁extreme	-7341
▁इलेक्ट्र	-7342
hem	-7343
▁didn	-7344
▁existence	-7345
▁ori	-7346
▁शुरु	-7347
▁da	-7348
चानक	-7349
▁buy	-7350
▁chast	-7351
▁ब्राह	-7352
कर्ताओं	-7353
▁hindus	-7354
▁remark	-7355
▁मान्यता	-7356
▁expected	-7357
▁organism	-7358
▁अरब	-7359
▁faces	-7360
▁सशक्त	-7361
actions	-7362
▁denied	-7363
▁प्राथमिकता	-7364
▁कृत	-7365
▁argu	-7366
▁died	-7367
▁नंबर	-7368
▁ideal	-7369
▁intel	-7370
▁voice	-7371
▁doctor	-7372
▁independent	-7373
नाक	-7374
▁हथ	-7375
▁rama	-7376
▁लंबी	-7377
▁हैंः	-7378
▁अगस्त	-7379
▁कहाँ	-7380
▁courts	-7381
▁techni	-7382
▁उपधारा	-7383
▁eastern	-7384
▁secretary	-7385
▁हस्ताक्षर	-7386
rew	-7387
▁जय	-7388
ंगिक	-7389
▁हाँ	-7390
▁cook	-7391
▁एकता	-7392
▁primary	-7393
▁मुस्लिम	-7394
▁situated	-7395
ओगे	-7396
्यु	-7397
शक्ति	-7398
▁सृजन	-7399
▁policies	-7400
▁unbelievers	-7401
रोध	-7402
▁door	-7403
▁मिनट	-7404
▁अचानक	-7405
reprene	-7406
▁maintain	-7407
▁expressed	-7408
▁कार्यान्वयन	-7409
▁fle	-7410
▁चिंता	-7411
▁मूल्यों	-7412
बु	-7413
lines	-7414
▁expand	-7415
▁जनसंख्या	-7416
ont	-7417
▁गोल	-7418
▁बाह	-7419
▁hair	-7420
▁rare	-7421
▁akbar	-7422
▁phase	-7423
▁divers	-7424
▁tourism	-7425
▁इंटरनेट	-7426
0}	-7427
you	-7428
घटना	-7429
▁नमू	-7430
▁ganga	-7431
▁beauty	-7432
▁पुरानी	-7433
▁journey	-7434
▁rajasth	-7435
▁supported	-7436
वण	-7437
een	-7438
▁bin	-7439
▁upd	-7440
▁कोड	-7441
▁दशक	-7442
▁frequ	-7443
▁hence	-7444
▁parad	-7445
isement	-7446
▁विद्यमान	-7447
▁registration	-7448
9,	-7449
▁कहता	-7450
▁yield	-7451
▁सरदार	-7452
▁points	-7453
▁sectors	-7454
▁राजनैतिक	-7455
5,	-7456
ंदी	-7457
▁suc	-7458
विश्व	-7459
▁जनजा	-7460
▁विजय	-7461
▁shape	-7462
▁प्रमाणपत्र	-7463
िफ	-7464
▁सब्	-7465
▁निहित	-7466
▁positive	-7467
▁presented	-7468
ोबार	-7469
▁solar	-7470
hab	-7471
▁प्रदू	-7472
▁न्यूनतम	-7473
▁greatest	-7474
▁entreprene	-7475
▁sufficient	-7476
ासी	-7477
▁स्ना	-7478
▁panch	-7479
▁तथापि	-7480
hens	-7481
त्तम	-7482
वाना	-7483
▁हिदायत	-7484
▁circumst	-7485
▁friendly	-7486
धित	-7487
लीय	-7488
▁185	-7489
▁मज़	-7490
▁यथा	-7491
▁सतह	-7492
▁film	-7493
▁उदार	-7494
▁buddh	-7495
▁जितना	-7496
▁नैतिक	-7497
▁संवाद	-7498
▁निर्वाचन	-7499
▁bed	-7500
asons	-7501
▁util	-7502
▁चलने	-7503
▁advant	-7504
▁recomp	-7505
▁आख़िरत	-7506
▁station	-7507
▁amb	-7508
▁band	-7509
▁gram	-7510
रू	-7511
ष्टा	-7512
▁yog	-7513
▁कूट	-7514
▁नयी	-7515
▁upper	-7516
iration	-7517
▁difference	-7518
लोड	-7519
▁joy	-7520
▁नस्	-7521
▁भला	-7522
▁assets	-7523
▁capt	-7524
▁करार	-7525
▁उठाया	-7526
▁चेहरे	-7527
▁mainly	-7528
▁कहेंगे	-7529
3,	-7530
रज़	-7531
▁गृह	-7532
▁तार	-7533
शनल	-7534
ously	-7535
▁फरमा	-7536
▁गुप्त	-7537
▁विभाजित	-7538
▁भु	-7539
▁surround	-7540
▁nut	-7541
hedul	-7542
▁नवीन	-7543
▁पश्चा	-7544
▁fellow	-7545
anas	-7546
▁pill	-7547
▁खाली	-7548
▁forgiving	-7549
▁कव	-7550
▁हद	-7551
enge	-7552
▁spl	-7553
▁विश्लेषण	-7554
▁intellect	-7555
4,	-7556
].	-7557
नन	-7558
लीफ	-7559
▁हिम	-7560
शीलता	-7561
▁cold	-7562
▁height	-7563
▁profit	-7564
▁target	-7565
▁deposit	-7566
▁योजनाओं	-7567
▁दस्तावेज	-7568
▁committed	-7569
ox	-7570
लेट	-7571
▁समीक्षा	-7572
▁कर्त	-7573
▁आग्रह	-7574
iciency	-7575
▁highly	-7576
▁शैक्षिक	-7577
alu	-7578
रीत	-7579
▁lic	-7580
▁चोट	-7581
▁fill	-7582
▁late	-7583
▁minutes	-7584
लम	-7585
▁ji	-7586
omin	-7587
▁उतर	-7588
▁sleep	-7589
▁chemical	-7590
kh	-7591
िक्र	-7592
कालिक	-7593
▁रेलवे	-7594
▁प्रभार	-7595
▁अता	-7596
▁साव	-7597
▁स्वस्थ	-7598
bru	-7599
र्या	-7600
▁shr	-7601
▁2001	-7602
▁अनुमो	-7603
▁बढ़ती	-7604
▁borrow	-7605
▁पंक्ति	-7606
▁उपभोक्ता	-7607
▁interesting	-7608
▁नद	-7609
omet	-7610
▁चक्र	-7611
▁साबित	-7612
▁करनेवाले	-7613
▁अहम	-7614
▁madh	-7615
▁nine	-7616
▁slow	-7617
▁सोचा	-7618
bruary	-7619
▁remem	-7620
▁output	-7621
▁गांवों	-7622
▁completely	-7623
▁7.	-7624
▁atm	-7625
▁पति	-7626
▁प्रथा	-7627
pped	-7628
▁wat	-7629
▁2008	-7630
▁crop	-7631
▁आवाज	-7632
▁हवाई	-7633
ography	-7634
▁astray	-7635
▁config	-7636
▁प्रशंसा	-7637
▁disbelievers	-7638
ॉक	-7639
वायु	-7640
▁obl	-7641
▁seed	-7642
▁जुड़ा	-7643
▁मीडिया	-7644
▁बजाय	-7645
▁colour	-7646
▁मुसलमानों	-7647
▁characters	-7648
aji	-7649
ष्‍	-7650
विधि	-7651
▁ang	-7652
allah	-7653
▁आहार	-7654
▁वैसे	-7655
▁appeal	-7656
▁निशानी	-7657
क्सी	-7658
शासन	-7659
▁dry	-7660
निष्ठ	-7661
▁पड़ी	-7662
िश्तों	-7663
▁birds	-7664
▁format	-7665
▁charges	-7666
▁संक्रमण	-7667
▁articles	-7668
▁वादा	-7669
▁breed	-7670
▁impact	-7671
▁series	-7672
▁stated	-7673
▁elements	-7674
▁facility	-7675
▁प्रारंभिक	-7676
▁व्यावसायिक	-7677
ख़्श	-7678
गरानी	-7679
▁ball	-7680
▁समग्र	-7681
▁praise	-7682
▁शिक्षक	-7683
▁engaged	-7684
मि	-7685
▁fruits	-7686
▁safety	-7687
▁affected	-7688
▁न्यायाधीश	-7689
itis	-7690
mark	-7691
▁लाइ	-7692
▁शिखर	-7693
▁विनियम	-7694
▁विपरीत	-7695
▁enterpr	-7696
▁version	-7697
▁happened	-7698
▁प्रोत्साहित	-7699
roud	-7700
▁sir	-7701
▁अका	-7702
▁touch	-7703
विज्ञान	-7704
▁monitor	-7705
▁whoever	-7706
▁उन्होने	-7707
▁ran	-7708
eties	-7709
▁incl	-7710
▁shap	-7711
▁levels	-7712
▁राजधानी	-7713
”.	-7714
▁छु	-7715
▁विल	-7716
▁सदा	-7717
▁saved	-7718
▁christ	-7719
▁moving	-7720
▁विशेषकर	-7721
abh	-7722
▁90	-7723
▁अक्ष	-7724
▁rapid	-7725
ब्र	-7726
▁70	-7727
ैर्य	-7728
▁avoid	-7729
▁behav	-7730
▁शिकार	-7731
▁august	-7732
▁टिक	-7733
▁फें	-7734
प्रति	-7735
▁game	-7736
▁मोदी	-7737
▁सफेद	-7738
▁tagore	-7739
▁संकल्प	-7740
▁schedul	-7741
▁निगरानी	-7742
शेष	-7743
▁उपा	-7744
▁मुद्र	-7745
▁events	-7746
▁expect	-7747
▁परिवहन	-7748
▁devotion	-7749
ja	-7750
फ़ार	-7751
▁परहे	-7752
▁प्राण	-7753
▁republic	-7754
▁historical	-7755
बरी	-7756
▁उतार	-7757
▁भेंट	-7758
▁chandra	-7759
▁opinion	-7760
▁reserve	-7761
▁academic	-7762
▁परिवर्तित	-7763
पण	-7764
inn	-7765
see	-7766
aign	-7767
महिम	-7768
▁bul	-7769
▁hur	-7770
▁dang	-7771
▁vent	-7772
▁इसको	-7773
▁सबको	-7774
▁मिलेगा	-7775
▁negative	-7776
▁calls	-7777
▁drive	-7778
▁exact	-7779
▁accomp	-7780
▁promised	-7781
▁hall	-7782
▁plat	-7783
▁keeping	-7784
▁नियंत्रित	-7785
▁तला	-7786
ात्मक	-7787
▁अनुरूप	-7788
▁cerem	-7789
▁अन्ततः	-7790
▁automatic	-7791
mar	-7792
ंगल	-7793
▁4,	-7794
नाटक	-7795
right	-7796
▁acts	-7797
▁दिला	-7798
▁शहरी	-7799
प्रदाय	-7800
▁provin	-7801
▁प्रचलित	-7802
यू	-7803
aja	-7804
ays	-7805
कात	-7806
्लो	-7807
मंडल	-7808
▁ठिक	-7809
▁abroad	-7810
▁honour	-7811
▁mental	-7812
▁निदेशक	-7813
know	-7814
▁खुला	-7815
▁मुझसे	-7816
▁explan	-7817
▁records	-7818
▁rajasthan	-7819
▁september	-7820
lies	-7821
▁अदा	-7822
▁नुक	-7823
▁साथी	-7824
▁उठाने	-7825
▁घोषित	-7826
▁धैर्य	-7827
▁listen	-7828
▁painful	-7829
▁railway	-7830
▁registered	-7831
।-	-7832
▁“”	-7833
ghal	-7834
chand	-7835
▁himal	-7836
▁संतुल	-7837
▁feeling	-7838
▁महामहिम	-7839
एगा	-7840
्मण	-7841
ratic	-7842
▁2012	-7843
▁परमाण	-7844
▁relief	-7845
▁scientists	-7846
ंजन	-7847
▁entered	-7848
▁consists	-7849
▁राजस्थान	-7850
atma	-7851
िक्स	-7852
▁ult	-7853
स्त्र	-7854
▁sale	-7855
▁प्रि	-7856
▁unity	-7857
▁campaign	-7858
▁आलो	-7859
▁मोड	-7860
▁june	-7861
▁griev	-7862
▁settle	-7863
ठित	-7864
apan	-7865
▁fed	-7866
▁सें	-7867
oming	-7868
istics	-7869
▁meant	-7870
▁गिरोह	-7871
▁शुद्ध	-7872
▁launched	-7873
डि	-7874
थे	-7875
▁आनन्द	-7876
▁prices	-7877
▁succeed	-7878
▁अफ्रीका	-7879
▁password	-7880
6,	-7881
\\	-7882
▁औप	-7883
▁वंश	-7884
▁साइ	-7885
hered	-7886
▁इनकी	-7887
▁plays	-7888
▁भंडारण	-7889
▁violence	-7890
▁जिम्मेदारी	-7891
▁परिणामस्वरूप	-7892
teen	-7893
▁वचन	-7894
▁poly	-7895
▁बाकी	-7896
▁mutual	-7897
▁दयावान	-7898
▁offered	-7899
शे	-7900
िप्प	-7901
▁cand	-7902
▁ब्रा	-7903
▁pursu	-7904
▁सूत्र	-7905
▁belief	-7906
गोल	-7907
▁निच	-7908
▁अद्य	-7909
▁निरी	-7910
▁लिखे	-7911
ounced	-7912
▁त्याग	-7913
▁compass	-7914
▁अधिकारों	-7915
▁प्रभुत्वशाली	-7916
asc	-7917
▁ash	-7918
▁धातु	-7919
▁describ	-7920
▁महात्मा	-7921
▁सुविधाएं	-7922
▁confident	-7923
▁इस्लाम	-7924
▁engineering	-7925
▁entr	-7926
▁सिवाय	-7927
▁युवाओं	-7928
▁pressure	-7929
▁legislative	-7930
▁लॉग	-7931
▁लोड	-7932
▁fine	-7933
¤	-7934
▁इसने	-7935
▁चुने	-7936
▁fresh	-7937
▁reality	-7938
▁कंपनियों	-7939
▁नवान्वेषण	-7940
▁निशानियाँ	-7941
▁appropriate	-7942
▁circumstances	-7943
▁३	-7944
▁फैल	-7945
▁बाबू	-7946
▁recei	-7947
▁contem	-7948
▁सरकारों	-7949
बूद	-7950
anged	-7951
▁सुदृ	-7952
oud	-7953
गोर	-7954
▁od	-7955
▁oce	-7956
▁herit	-7957
▁waste	-7958
▁clearly	-7959
▁सॉफ्टवेयर	-7960
वंश	-7961
▁muse	-7962
▁तिथि	-7963
▁विधे	-7964
▁theme	-7965
▁curren	-7966
▁worlds	-7967
ालिब	-7968
▁दयाल	-7969
▁सीधा	-7970
▁ठिकाना	-7971
▁performed	-7972
▁नेअ	-7973
▁परिसर	-7974
▁प्रिय	-7975
▁मिलेगी	-7976
umn	-7977
▁happen	-7978
▁chapter	-7979
▁climate	-7980
▁ministers	-7981
▁translation	-7982
▁विश्वविद्यालयों	-7983
▁B	-7984
yan	-7985
▁पॉ	-7986
तियां	-7987
▁प्रयत्न	-7988
िटी	-7989
overy	-7990
verty	-7991
▁store	-7992
▁नुकसान	-7993
▁श्रेष्ठ	-7994
▁principal	-7995
गिज़	-7996
न्दु	-7997
▁भेद	-7998
▁सदन	-7999
्यवाद	-8000
▁संगण	-8001
▁absol	-8002
▁proud	-8003
▁प्रयोजन	-8004
▁challenges	-8005
ैक	-8006
ख्श	-8007
▁आकर	-8008
▁जैव	-8009
▁टूट	-8010
▁रुपए	-8011
▁सभ्यता	-8012
▁heritage	-8013
ंडी	-8014
िने	-8015
▁dim	-8016
uries	-8017
▁subs	-8018
▁ताकत	-8019
▁बरसा	-8020
▁काफ़ी	-8021
▁फिरऔन	-8022
▁बढ़कर	-8023
▁poverty	-8024
osen	-8025
संस्	-8026
▁द्विप	-8027
▁shares	-8028
▁विरासत	-8029
▁critical	-8030
▁location	-8031
ming	-8032
ataka	-8033
▁crim	-8034
▁देवता	-8035
▁भरोसा	-8036
iny	-8037
ula	-8038
ysis	-8039
▁डाय	-8040
▁देखे	-8041
▁तारीख	-8042
▁चरित्र	-8043
▁परहेज़	-8044
▁internal	-8045
ahar	-8046
▁पौधों	-8047
rection	-8048
standing	-8049
न्द्रनाथ	-8050
▁पुस्तकालय	-8051
मती	-8052
ores	-8053
▁bag	-8054
▁2002	-8055
ग्रस्त	-8056
▁अपराध	-8057
▁विविधता	-8058
▁teaching	-8059
▁prosperity	-8060
पथ	-8061
घात	-8062
▁गर्म	-8063
▁मुद्दों	-8064
▁features	-8065
▁register	-8066
▁सर्वेक्षण	-8067
ese	-8068
जिट	-8069
तीत	-8070
▁टीम	-8071
▁बारी	-8072
▁मकान	-8073
▁मामला	-8074
▁समझने	-8075
▁concer	-8076
▁विभाजन	-8077
▁फा	-8078
▁org	-8079
▁२००	-8080
▁estim	-8081
▁बिंदु	-8082
▁volume	-8083
▁context	-8084
▁reminder	-8085
जल	-8086
भेद	-8087
▁nag	-8088
▁हरि	-8089
ोजनों	-8090
▁kill	-8091
▁trou	-8092
▁मानो	-8093
▁corru	-8094
▁altern	-8095
▁समावेश	-8096
▁राजनीति	-8097
▁objective	-8098
▁electricity	-8099
▁initiatives	-8100
▁चुप	-8101
▁फोट	-8102
्रांस	-8103
▁glor	-8104
▁join	-8105
▁घरों	-8106
▁तुरंत	-8107
▁threat	-8108
▁withdra	-8109
▁समृद्धि	-8110
▁daughter	-8111
▁included	-8112
bh	-8113
▁dat	-8114
▁देखी	-8115
▁मूर्	-8116
▁grace	-8117
▁grass	-8118
▁newsp	-8119
▁सुझाव	-8120
▁बन्दगी	-8121
▁delivery	-8122
▁दुर्घटना	-8123
▁ठोस	-8124
▁liqu	-8125
▁लेखन	-8126
▁चलाने	-8127
▁पहाड़	-8128
▁शख़्श	-8129
▁divine	-8130
▁amongst	-8131
▁राज्यपाल	-8132
vious	-8133
▁taste	-8134
▁degree	-8135
▁bengali	-8136
▁incident	-8137
▁principles	-8138
nes	-8139
▁लै	-8140
rage	-8141
▁iron	-8142
▁नज़र	-8143
▁changing	-8144
hers	-8145
िल्प	-8146
▁आपस	-8147
▁वीर	-8148
▁http	-8149
▁communic	-8150
तरी	-8151
▁सौर	-8152
▁girl	-8153
▁खत्म	-8154
▁drawn	-8155
▁compre	-8156
▁directory	-8157
llig	-8158
▁jaw	-8159
▁sell	-8160
▁ज्ञात	-8161
▁बच्चा	-8162
osphere	-8163
▁removed	-8164
कां	-8165
विल	-8166
rows	-8167
्यूट	-8168
▁कोय	-8169
▁exal	-8170
स्थायी	-8171
▁जुलाई	-8172
▁ग़ालिब	-8173
▁प्रतीत	-8174
gen	-8175
▁vast	-8176
▁पाते	-8177
▁मुकद	-8178
▁accident	-8179
▁interests	-8180
िस्ट	-8181
▁कने	-8182
भाविक	-8183
▁july	-8184
¤¿	-8185
▁1"	-8186
▁भरा	-8187
▁अभिय	-8188
▁breat	-8189
ुमा	-8190
बादत	-8191
▁कैं	-8192
achal	-8193
▁sort	-8194
▁उधार	-8195
▁तथ्य	-8196
▁वायदा	-8197
▁experi	-8198
▁museum	-8199
▁rejected	-8200
बीर	-8201
▁पत	-8202
▁bri	-8203
ateful	-8204
▁chosen	-8205
▁नेताओं	-8206
▁mahatma	-8207
▁ज़्यादा	-8208
▁संगठनों	-8209
▁practices	-8210
usive	-8211
▁आवास	-8212
▁पढ़ा	-8213
▁multiple	-8214
▁bilateral	-8215
थी	-8216
ndra	-8217
▁fit	-8218
▁helps	-8219
▁मिलते	-8220
▁लड़ाई	-8221
▁confidence	-8222
जै	-8223
रत	-8224
▁pa	-8225
Name	-8226
ियार	-8227
▁ढूं	-8228
▁बोझ	-8229
▁valu	-8230
▁भक्ति	-8231
▁जलवायु	-8232
▁सहकारी	-8233
▁medicine	-8234
▁अभिव्यक्ति	-8235
ांक	-8236
▁bhar	-8237
▁priority	-8238
भाषित	-8239
▁जागर	-8240
▁adult	-8241
▁skill	-8242
▁ढांचे	-8243
▁थोड़ी	-8244
▁समस्त	-8245
▁exists	-8246
▁असमर्थ	-8247
ेंद्र	-8248
▁susp	-8249
▁गवाह	-8250
▁newspap	-8251
अपनी	-8252
▁coal	-8253
▁तेरे	-8254
▁बनाता	-8255
▁होंगी	-8256
▁क़ुरआन	-8257
▁materials	-8258
▁prescribed	-8259
iled	-8260
▁शोक	-8261
▁तरफ़	-8262
▁पौधे	-8263
▁grown	-8264
▁moved	-8265
▁taught	-8266
▁flowers	-8267
▁चिकित्स	-8268
adu	-8269
ीनी	-8270
▁ms	-8271
▁sor	-8272
▁देखना	-8273
▁remote	-8274
▁regions	-8275
//	-8276
una	-8277
▁कराया	-8278
▁फरवरी	-8279
ologies	-8280
▁chance	-8281
▁creating	-8282
▁̧	-8283
from	-8284
iles	-8285
बन्धी	-8286
▁गणना	-8287
▁डिजा	-8288
▁दोनो	-8289
▁प्लस	-8290
▁looks	-8291
▁दीर्घ	-8292
▁extent	-8293
ca	-8294
▁modi	-8295
ंत्रिक	-8296
▁आयतें	-8297
▁judgment	-8298
ket	-8299
omy	-8300
ख्स	-8301
miss	-8302
▁भरी	-8303
ivers	-8304
▁rice	-8305
▁गुफा	-8306
▁digital	-8307
▁assessment	-8308
▁leaf	-8309
▁japan	-8310
▁आवाज़	-8311
▁देखता	-8312
imately	-8313
▁bodies	-8314
▁सामर्थ	-8315
▁प्रतियोग	-8316
केट	-8317
▁तोड़	-8318
▁शख्स	-8319
▁हाथी	-8320
ंत्रित	-8321
▁अदालत	-8322
पै	-8323
▁जला	-8324
▁रजि	-8325
▁कमजोर	-8326
स्तियों	-8327
▁filled	-8328
▁अध्याय	-8329
▁finally	-8330
▁learned	-8331
▁portion	-8332
▁explanation	-8333
▁kar	-8334
▁mort	-8335
▁हार्	-8336
amental	-8337
▁परमाणु	-8338
अल्	-8339
र्र	-8340
▁dust	-8341
▁brain	-8342
▁wonder	-8343
▁एकमात्र	-8344
▁समुद्री	-8345
▁generations	-8346
60	-8347
▁खि	-8348
▁मिस	-8349
▁शान	-8350
raham	-8351
▁2011	-8352
▁secure	-8353
▁उत्तरा	-8354
▁समझौता	-8355
▁banking	-8356
▁scholar	-8357
▁va	-8358
▁tub	-8359
▁pick	-8360
▁behold	-8361
rael	-8362
▁खान	-8363
▁surv	-8364
▁आराम	-8365
▁समित	-8366
▁ग्राफ	-8367
▁prefer	-8368
▁february	-8369
▁अश	-8370
संबर	-8371
▁अवै	-8372
▁कामना	-8373
▁marked	-8374
▁कर्नाटक	-8375
idge	-8376
▁उगा	-8377
त्कार	-8378
aneous	-8379
▁coast	-8380
▁सुदृढ़	-8381
▁nuclear	-8382
▁आतंकवाद	-8383
▁branches	-8384
▁compassion	-8385
dess	-8386
▁187	-8387
enses	-8388
under	-8389
▁लोगो	-8390
▁नौकरी	-8391
▁पक्षों	-8392
▁अन्तर्गत	-8393
▁disbelieve	-8394
iar	-8395
▁eve	-8396
▁याच	-8397
▁babu	-8398
▁इमार	-8399
▁ऊपरी	-8400
▁कैसा	-8401
▁amend	-8402
▁kinds	-8403
▁अनुसरण	-8404
▁क़यामत	-8405
▁currently	-8406
▁स्पष्टीकरण	-8407
लील	-8408
▁kan	-8409
▁घटा	-8410
aving	-8411
▁1999	-8412
▁trial	-8413
▁interv	-8414
▁household	-8415
ips	-8416
ंदन	-8417
दंड	-8418
द्वीप	-8419
▁कमरे	-8420
▁चालू	-8421
▁adequ	-8422
▁title	-8423
▁एह	-8424
like	-8425
onse	-8426
▁वैध	-8427
फारिश	-8428
▁मुला	-8429
▁शत्र	-8430
▁apost	-8431
▁अक्षम	-8432
▁दैनिक	-8433
▁स्मार	-8434
▁breast	-8435
▁unless	-8436
▁absolute	-8437
▁अत	-8438
rant	-8439
▁बोस	-8440
▁ध्वनि	-8441
▁dialog	-8442
▁घटनाओं	-8443
▁intellig	-8444
▁yourself	-8445
gal	-8446
म्स	-8447
▁छि	-8448
▁zero	-8449
▁भावी	-8450
▁brahm	-8451
▁spent	-8452
▁संध्या	-8453
▁picture	-8454
fall	-8455
▁rom	-8456
▁आर्	-8457
▁कोवि	-8458
पालिका	-8459
▁minor	-8460
▁arrest	-8461
▁refuge	-8462
▁channel	-8463
abilities	-8464
▁chairman	-8465
▁ka	-8466
▁goal	-8467
▁पट्ट	-8468
▁पाँच	-8469
▁संग्र	-8470
▁buddha	-8471
▁budget	-8472
▁unjust	-8473
▁आक्रमण	-8474
▁सराहना	-8475
▁offices	-8476
gn	-8477
▁लूत	-8478
▁fell	-8479
▁hill	-8480
▁memor	-8481
▁excess	-8482
▁उत्तरी	-8483
▁factors	-8484
ाइड	-8485
athy	-8486
मतों	-8487
मानी	-8488
▁क़ुरान	-8489
▁smaller	-8490
▁आह	-8491
eria	-8492
▁देय	-8493
lying	-8494
▁पेंशन	-8495
▁wisdom	-8496
▁pension	-8497
▁released	-8498
▁participation	-8499
oph	-8500
▁अभाव	-8501
▁खराब	-8502
▁लौटा	-8503
नेवाली	-8504
▁ahead	-8505
▁nepal	-8506
▁plain	-8507
▁gather	-8508
▁hidden	-8509
▁chastisement	-8510
ika	-8511
icip	-8512
inet	-8513
▁आउट	-8514
▁nort	-8515
▁star	-8516
▁likely	-8517
▁दिखाएँ	-8518
▁convers	-8519
▁obvious	-8520
▁प्रतिबद्ध	-8521
▁प्रतीक्षा	-8522
▁द्विपक्षीय	-8523
▁महल	-8524
▁doesn	-8525
▁यक़ीनी	-8526
▁replied	-8527
dy	-8528
ales	-8529
ंध्र	-8530
▁तमाम	-8531
शास्त्र	-8532
▁screen	-8533
▁holding	-8534
▁पश्चात्	-8535
-4	-8536
▁टा	-8537
▁irr	-8538
▁चली	-8539
▁2017	-8540
▁जल्द	-8541
▁बेटे	-8542
▁caste	-8543
▁sugar	-8544
▁joined	-8545
▁अर्थात	-8546
▁कश्मीर	-8547
▁aspects	-8548
▁goddess	-8549
▁साहित्यिक	-8550
astic	-8551
iring	-8552
ought	-8553
▁nearly	-8554
▁customer	-8555
▁extended	-8556
▁प्रतिस्प	-8557
▁happiness	-8558
agn	-8559
ूंकि	-8560
▁आना	-8561
▁नवा	-8562
▁नूह	-8563
▁debt	-8564
▁माबूद	-8565
▁शीर्षक	-8566
▁deliver	-8567
▁showing	-8568
▁द्वितीय	-8569
नाश	-8570
arer	-8571
▁anti	-8572
▁empt	-8573
दुनिया	-8574
▁मजदूर	-8575
▁bright	-8576
▁tissue	-8577
▁methods	-8578
▁सर्वोत्तम	-8579
ped	-8580
athi	-8581
▁पाद	-8582
▁सचिव	-8583
▁सिफारिश	-8584
▁administrative	-8585
▁|	-8586
osh	-8587
▁kil	-8588
▁एंड	-8589
ricts	-8590
▁कहला	-8591
नात्मक	-8592
▁andhra	-8593
▁distingu	-8594
▁excellent	-8595
▁otherwise	-8596
▁sculpture	-8597
यिक	-8598
िली	-8599
▁नाग	-8600
ayana	-8601
▁bone	-8602
▁drugs	-8603
▁piece	-8604
▁namely	-8605
▁अद्यतन	-8606
▁letters	-8607
▁accompan	-8608
▁authorities	-8609
▁sev	-8610
▁दुकान	-8611
▁संसदीय	-8612
▁visited	-8613
▁requirements	-8614
▁ali	-8615
▁असर	-8616
▁साझे	-8617
▁अनुपात	-8618
▁purchase	-8619
▁पुस्तकों	-8620
▁encourage	-8621
▁rit	-8622
gress	-8623
ख्यात	-8624
▁प्ला	-8625
▁compr	-8626
▁volunt	-8627
▁अभिलेख	-8628
▁student	-8629
ोकन	-8630
▁छिपा	-8631
▁users	-8632
▁टिप्प	-8633
▁तस्वी	-8634
▁मैत्री	-8635
▁हरगिज़	-8636
▁carrying	-8637
▁background	-8638
nel	-8639
rim	-8640
▁गौ	-8641
▁नारा	-8642
▁conce	-8643
▁param	-8644
▁views	-8645
▁चूंकि	-8646
▁पारित	-8647
▁ability	-8648
▁organiz	-8649
▁revenue	-8650
▁साथियों	-8651
▁आवश्यकताओं	-8652
▁revelations	-8653
ँति	-8654
वां	-8655
ाइन	-8656
▁45	-8657
▁rob	-8658
▁bott	-8659
▁अधिस	-8660
▁जर्म	-8661
▁images	-8662
▁welcome	-8663
▁military	-8664
▁कोशिकाओं	-8665
राव	-8666
▁मृ	-8667
vert	-8668
▁tea	-8669
▁गोप	-8670
▁quot	-8671
ifying	-8672
▁weeks	-8673
▁चाहती	-8674
▁सकेगा	-8675
▁achieved	-8676
▁consumer	-8677
▁currency	-8678
▁suddenly	-8679
▁extension	-8680
▁manufacturing	-8681
अर	-8682
alty	-8683
म्मद	-8684
▁आयी	-8685
▁फ्ल	-8686
▁center	-8687
▁karnataka	-8688
पत	-8689
olid	-8690
ंतरण	-8691
▁bose	-8692
▁दौड़	-8693
▁critic	-8694
▁जोड़ने	-8695
▁दिसंबर	-8696
▁reasons	-8697
▁नियुक्ति	-8698
▁recompense	-8699
oj	-8700
▁eth	-8701
▁poem	-8702
▁swit	-8703
tenance	-8704
▁यौ	-8705
पिता	-8706
ॉर्ड	-8707
क्ष्य	-8708
▁खोलने	-8709
▁उत्साह	-8710
▁declared	-8711
▁challenge	-8712
▁professional	-8713
▁nare	-8714
▁सलाम	-8715
▁पोर्ट	-8716
▁prison	-8717
▁निकाला	-8718
▁permanent	-8719
▁झा	-8720
ties	-8721
गामी	-8722
िप्त	-8723
▁दर्	-8724
▁वकी	-8725
▁दबाव	-8726
▁प्री	-8727
▁notes	-8728
▁आजादी	-8729
▁जाओगे	-8730
irm	-8731
दायी	-8732
्यास	-8733
▁चेतना	-8734
▁healthy	-8735
▁majority	-8736
da	-8737
णन	-8738
जनन	-8739
ifice	-8740
▁wants	-8741
▁शुक्र	-8742
▁seeing	-8743
cul	-8744
न्ध	-8745
▁रेश	-8746
पेक्ष	-8747
▁item	-8748
▁जाएं	-8749
▁जीवा	-8750
▁रोकने	-8751
▁अनुदान	-8752
▁प्रारूप	-8753
4)	-8754
▁ly	-8755
▁तिर	-8756
▁रकम	-8757
▁खड़ी	-8758
▁proved	-8759
▁discipl	-8760
▁awareness	-8761
▁प्रतिनिधि	-8762
▁प्रशासनिक	-8763
▁सामान्यतः	-8764
▁maintenance	-8765
iy	-8766
एच	-8767
▁साध	-8768
▁heat	-8769
▁अग्रणी	-8770
▁विद्या	-8771
▁profess	-8772
▁अपेक्षित	-8773
ऊँ	-8774
▁syn	-8775
▁डाउन	-8776
▁पारि	-8777
▁जादूगर	-8778
▁मानवीय	-8779
▁अस्पताल	-8780
▁agencies	-8781
ule	-8782
बादी	-8783
rical	-8784
कृष्ण	-8785
▁ende	-8786
▁गहरी	-8787
▁सिखा	-8788
▁विनिमय	-8789
▁तंत्रिका	-8790
वश	-8791
न्या	-8792
▁300	-8793
▁मॉडल	-8794
▁ज़ुल्	-8795
▁recently	-8796
▁evolution	-8797
0,	-8798
ios	-8799
बेस	-8800
ंचित	-8801
▁excl	-8802
▁exhib	-8803
▁दिलों	-8804
▁mostly	-8805
▁shared	-8806
▁writer	-8807
▁failure	-8808
▁स्क्रीन	-8809
▁pit	-8810
inery	-8811
▁संबद्ध	-8812
▁perfect	-8813
▁अज	-8814
▁vig	-8815
▁उभर	-8816
▁सिल	-8817
ार्थी	-8818
▁मज़ा	-8819
▁इबादत	-8820
▁जिसको	-8821
▁rupees	-8822
▁exercise	-8823
▁response	-8824
ंगों	-8825
▁खुली	-8826
▁डरते	-8827
▁मुगल	-8828
▁लगाए	-8829
▁interp	-8830
▁ज़ुल्म	-8831
▁दोबारा	-8832
▁defined	-8833
▁journal	-8834
▁scheduled	-8835
बीह	-8836
▁घूम	-8837
▁rang	-8838
▁नेपाल	-8839
▁उच्चतम	-8840
ाक	-8841
▁T	-8842
ims	-8843
गमन	-8844
वर्ड	-8845
▁वेद	-8846
▁earn	-8847
▁sard	-8848
▁बाधा	-8849
▁marketing	-8850
▁स्वाभाविक	-8851
▁leadership	-8852
फ्र	-8853
▁आरोप	-8854
▁परिचय	-8855
▁गिरफ्त	-8856
▁कनेक्शन	-8857
▁स्त्रियों	-8858
▁convention	-8859
ius	-8860
▁रवी	-8861
▁अवैध	-8862
▁कमांड	-8863
▁पूज्य	-8864
▁disapp	-8865
▁valley	-8866
▁प्रवाह	-8867
▁recorded	-8868
▁relevant	-8869
▁भारतीयों	-8870
▁cru	-8871
▁nan	-8872
▁चाय	-8873
▁सदी	-8874
▁nath	-8875
▁शिशु	-8876
icians	-8877
▁dwell	-8878
▁नेत्र	-8879
▁initial	-8880
▁assigned	-8881
▁suitable	-8882
ml	-8883
king	-8884
म्मत	-8885
▁मौत	-8886
▁obey	-8887
▁मुक़ा	-8888
▁duties	-8889
▁israel	-8890
▁collabor	-8891
ंटर	-8892
▁33	-8893
▁सज़ा	-8894
▁सरकश	-8895
▁surpr	-8896
▁संदेह	-8897
▁survey	-8898
▁warning	-8899
▁संयंत्र	-8900
ेत	-8901
uff	-8902
ुरी	-8903
्नि	-8904
issa	-8905
▁sons	-8906
▁मछली	-8907
▁stood	-8908
▁चुकता	-8909
▁निकाय	-8910
▁बुराई	-8911
▁सामर्थ्य	-8912
▁M	-8913
ल्य	-8914
▁सहेज	-8915
▁commod	-8916
▁attached	-8917
▁examples	-8918
▁resolution	-8919
▁consideration	-8920
mi	-8921
://	-8922
his	-8923
lal	-8924
▁sho	-8925
▁त्य	-8926
▁hero	-8927
▁अभिन	-8928
▁magic	-8929
शाह	-8930
▁(_	-8931
ार्ट	-8932
▁पाक	-8933
▁मृत	-8934
▁crow	-8935
▁mist	-8936
▁इलाज	-8937
▁उतना	-8938
▁पैसे	-8939
▁राहत	-8940
ective	-8941
स्थापित	-8942
▁receipt	-8943
▁equipment	-8944
▁दस्तावेज़	-8945
त्स	-8946
bind	-8947
▁spoke	-8948
▁मिलियन	-8949
▁england	-8950
▁manager	-8951
▁paradise	-8952
hic	-8953
ull	-8954
▁ec	-8955
रीबी	-8956
▁जम्	-8957
▁audit	-8958
▁noble	-8959
▁agreed	-8960
▁endeav	-8961
▁killed	-8962
▁senior	-8963
▁कम्पनी	-8964
▁solution	-8965
▁recommend	-8966
वधि	-8967
aram	-8968
▁jag	-8969
▁लगते	-8970
▁मध्यम	-8971
▁लिमिट	-8972
▁forget	-8973
▁struct	-8974
▁वस्त्र	-8975
▁playing	-8976
▁treated	-8977
▁ग्राहकों	-8978
▁ourselves	-8979
िड	-8980
☻☻	-8981
▁एड	-8982
क्रो	-8983
र्ती	-8984
aling	-8985
known	-8986
मार्ग	-8987
▁दिलच	-8988
▁raise	-8989
▁platform	-8990
▁सप	-8991
सनीय	-8992
▁khan	-8993
▁उन्न	-8994
▁decor	-8995
▁rates	-8996
▁पीढ़ी	-8997
▁वर्गी	-8998
▁reduce	-8999
▁इसीलिए	-9000
▁शिक्षण	-9001
▁districts	-9002
▁प्रयोजनों	-9003
''	-9004
▁mur	-9005
arant	-9006
▁seized	-9007
▁mountain	-9008
▁obtained	-9009
▁requires	-9010
ka	-9011
.12	-9012
vest	-9013
च्छे	-9014
▁निः	-9015
▁cott	-9016
▁कुफ्	-9017
▁attrib	-9018
▁डिजाइन	-9019
▁sources	-9020
▁sections	-9021
¤1	-9022
ेंज	-9023
▁1'	-9024
ques	-9025
धीरे	-9026
▁उसपर	-9027
▁जानने	-9028
▁अपनाया	-9029
▁उपस्थिति	-9030
▁उल्लेखनीय	-9031
▁commissioner	-9032
most	-9033
व्यव	-9034
▁sav	-9035
▁बहुम	-9036
▁inher	-9037
▁cattle	-9038
▁mobile	-9039
▁संविदा	-9040
▁हिमालय	-9041
▁conflic	-9042
▁vital	-9043
▁अधिसू	-9044
▁कक्षा	-9045
▁fertil	-9046
▁;	-9047
pta	-9048
लियों	-9049
▁कॉन्	-9050
▁सागर	-9051
▁admon	-9052
▁बनाये	-9053
▁स्वाम	-9054
▁visible	-9055
▁individuals	-9056
▁establishment	-9057
▁nic	-9058
board	-9059
▁marg	-9060
▁हार्दिक	-9061
▁संग्रहालय	-9062
25	-9063
▁P	-9064
समय	-9065
िरी	-9066
▁ox	-9067
▁ves	-9068
▁indig	-9069
▁loans	-9070
▁डिजिट	-9071
▁double	-9072
▁ib	-9073
▁हँ	-9074
▁cool	-9075
▁eggs	-9076
▁सांस	-9077
▁tribun	-9078
▁similarly	-9079
▁thousands	-9080
imal	-9081
▁बचाव	-9082
▁factor	-9083
▁showed	-9084
▁submitted	-9085
ुति	-9086
▁बजट	-9087
▁bills	-9088
▁कदापि	-9089
▁रहेगी	-9090
▁convey	-9091
▁वर्गों	-9092
▁औपचारिक	-9093
▁executive	-9094
प्ति	-9095
shipp	-9096
▁बांध	-9097
▁साझा	-9098
▁ड्राइ	-9099
▁विधेयक	-9100
▁parliamentary	-9101
▁D	-9102
ded	-9103
िकेट	-9104
▁jail	-9105
▁विनय	-9106
▁हिमा	-9107
▁बाह्य	-9108
▁served	-9109
▁असाधारण	-9110
▁उपकरणों	-9111
▁conducted	-9112
wal	-9113
pted	-9114
काता	-9115
बाइल	-9116
▁arm	-9117
▁mos	-9118
▁ब्ल	-9119
▁वाक	-9120
▁gate	-9121
▁shar	-9122
▁reduced	-9123
▁चैतन	-9124
▁moral	-9125
▁simpl	-9126
▁जुड़ी	-9127
▁expert	-9128
▁myself	-9129
▁जहन्नम	-9130
▁लिमिटेड	-9131
▁starting	-9132
▁customers	-9133
▁friendship	-9134
▁petitioner	-9135
▁प्रतिस्पर्	-9136
▁instruments	-9137
ईल	-9138
ses	-9139
स्फ	-9140
चार्य	-9141
नेक्ट	-9142
▁lect	-9143
▁yoga	-9144
▁निधन	-9145
▁पुष्	-9146
ortion	-9147
▁assum	-9148
▁कॉलेज	-9149
▁agency	-9150
▁battle	-9151
▁विनष्ट	-9152
▁courage	-9153
▁guarant	-9154
▁दर्शाता	-9155
▁inspired	-9156
▁installed	-9157
.11	-9158
will	-9159
▁(3)	-9160
▁kum	-9161
▁rent	-9162
▁चैनल	-9163
▁पार्	-9164
▁datab	-9165
▁पैमाने	-9166
▁समूहों	-9167
▁advanced	-9168
▁तत्वदर्शी	-9169
▁strengthen	-9170
▁forgiveness	-9171
.'	-9172
▁.	-9173
uous	-9174
ेंसी	-9175
▁kab	-9176
▁जड़	-9177
▁rock	-9178
▁ख़ास	-9179
▁द्वि	-9180
▁reports	-9181
▁composed	-9182
▁democratic	-9183
रस	-9184
200	-9185
दरा	-9186
▁5,	-9187
ames	-9188
▁हमे	-9189
ज्ञात	-9190
ivered	-9191
erative	-9192
▁damage	-9193
▁prince	-9194
▁america	-9195
▁worshipp	-9196
▁advantage	-9197
ौती	-9198
्रय	-9199
erate	-9200
▁काला	-9201
uction	-9202
▁proof	-9203
▁google	-9204
▁उपय	-9205
▁बढ़ने	-9206
▁affect	-9207
▁windows	-9208
▁प्रतियोगिता	-9209
▁intellectual	-9210
po	-9211
▁̧à	-9212
aitan	-9213
▁कच्च	-9214
▁रानी	-9215
▁प्यार	-9216
▁orders	-9217
▁ritual	-9218
▁पत्रिका	-9219
▁brothers	-9220
▁परिवारों	-9221
▁guidelines	-9222
ians	-9223
▁बटन	-9224
▁वरि	-9225
▁जवाहर	-9226
▁मोमिन	-9227
▁अवसरों	-9228
▁figures	-9229
aces	-9230
name	-9231
दायक	-9232
मर्श	-9233
▁sind	-9234
▁अनाज	-9235
▁train	-9236
▁turns	-9237
▁आरम्भ	-9238
▁कपड़े	-9239
▁string	-9240
▁याचिका	-9241
▁follows	-9242
▁pleasure	-9243
▁maintained	-9244
▁transactions	-9245
ढ़े	-9246
वंबर	-9247
▁eld	-9248
▁flag	-9249
▁मुका	-9250
▁vehic	-9251
▁मानना	-9252
▁चैतन्य	-9253
▁सितंबर	-9254
▁अभिप्रे	-9255
▁download	-9256
▁discussion	-9257
थान	-9258
▁बग	-9259
cles	-9260
▁जाल	-9261
ेश्वर	-9262
▁छाया	-9263
overed	-9264
अल्लाह	-9265
▁girls	-9266
▁tribal	-9267
▁जानवरों	-9268
▁permission	-9269
.“	-9270
udd	-9271
▁8.	-9272
ड़ित	-9273
▁150	-9274
▁das	-9275
▁कुरान	-9276
▁ख्याल	-9277
▁तीसरे	-9278
▁ii	-9279
▁पहन	-9280
ankar	-9281
▁जहाज	-9282
▁सुनने	-9283
▁latter	-9284
▁orissa	-9285
▁पहाड़ी	-9286
▁whenever	-9287
▁selection	-9288
चरण	-9289
▁प्	-9290
▁कही	-9291
▁idol	-9292
▁दिमा	-9293
▁आज्ञा	-9294
▁कारणों	-9295
▁विरोधी	-9296
▁किलोमीटर	-9297
▁objectives	-9298
▁communities	-9299
▁tel	-9300
क्रिय	-9301
▁तुझे	-9302
▁adjust	-9303
▁कर्तव्य	-9304
▁determined	-9305
ona	-9306
ेंड	-9307
▁luck	-9308
▁pref	-9309
▁stead	-9310
▁राजस्व	-9311
▁departments	-9312
न्ड	-9313
पूर	-9314
यंती	-9315
▁cam	-9316
▁यून	-9317
▁ख़ूब	-9318
▁coord	-9319
▁actual	-9320
▁assured	-9321
▁sitting	-9322
▁संचालित	-9323
▁politics	-9324
▁relative	-9325
▁pollution	-9326
▁thereafter	-9327
आप	-9328
▁G	-9329
ili	-9330
रचना	-9331
ूहिक	-9332
▁disk	-9333
▁अर्ध	-9334
▁मुंह	-9335
▁radio	-9336
▁इन्सान	-9337
▁delight	-9338
▁subjects	-9339
▁greetings	-9340
▁̈	-9341
lad	-9342
ॉनिक	-9343
▁dip	-9344
▁पहलू	-9345
▁maybe	-9346
▁दयालुता	-9347
यत	-9348
पार	-9349
fort	-9350
ंडित	-9351
▁neck	-9352
▁मादा	-9353
क्तूबर	-9354
▁scholars	-9355
▁delivered	-9356
लभ	-9357
▁ax	-9358
ीकृत	-9359
▁tab	-9360
erves	-9361
▁glad	-9362
▁आदान	-9363
क़यामत	-9364
▁pregn	-9365
▁आंध्र	-9366
▁जम्मू	-9367
▁fourth	-9368
▁technologies	-9369
रेखा	-9370
▁दुः	-9371
▁blue	-9372
▁काली	-9373
▁assistant	-9374
ंचाई	-9375
▁गार	-9376
▁poets	-9377
▁disput	-9378
▁श्रमिक	-9379
▁सकेंगे	-9380
▁प्रविष्ट	-9381
▁represents	-9382
जब	-9383
मों	-9384
नीति	-9385
▁हरे	-9386
▁gain	-9387
▁निरीक्षण	-9388
▁सम्पूर्ण	-9389
▁प्रवृत्ति	-9390
▁पड	-9391
ocol	-9392
▁झूठ	-9393
▁बांग	-9394
▁empty	-9395
▁प्रेष	-9396
▁मिलाकर	-9397
▁adequate	-9398
▁sanction	-9399
▁अंतरिक्ष	-9400
▁suffering	-9401
मै	-9402
fts	-9403
▁तस	-9404
▁sah	-9405
▁park	-9406
▁advis	-9407
▁जोड़ा	-9408
▁पट्टी	-9409
▁फैसला	-9410
▁भेजने	-9411
▁abraham	-9412
▁effects	-9413
▁क्रांति	-9414
▁resurrection	-9415
.%	-9416
जाम	-9417
बों	-9418
▁गहन	-9419
▁मरा	-9420
▁nadu	-9421
▁कड़ी	-9422
▁सामूहिक	-9423
▁terrorism	-9424
णिक	-9425
ilty	-9426
using	-9427
▁ट्रे	-9428
निर्भर	-9429
▁inner	-9430
▁substant	-9431
▁निष्पादन	-9432
▁concerning	-9433
▁रण	-9434
ड्डी	-9435
श्रम	-9436
स्ट्र	-9437
▁cave	-9438
▁mant	-9439
▁vice	-9440
▁beings	-9441
▁व्युत्	-9442
▁स्वीकृति	-9443
▁containing	-9444
▁destination	-9445
top	-9446
▁uses	-9447
▁weather	-9448
▁मंदिरों	-9449
▁integrated	-9450
.08	-9451
iry	-9452
phone	-9453
▁विद्र	-9454
▁engage	-9455
▁privile	-9456
▁केंद्रित	-9457
▁mechanism	-9458
ॉलर	-9459
▁hyp	-9460
▁map	-9461
▁heed	-9462
▁अंतः	-9463
▁track	-9464
▁गरीबी	-9465
ण्य	-9466
▁aid	-9467
▁woe	-9468
▁जंगल	-9469
▁रिया	-9470
▁सबके	-9471
▁evalu	-9472
▁दोहरा	-9473
▁extend	-9474
▁फ़िरऔन	-9475
▁organis	-9476
▁संवर्धन	-9477
▁atmosphere	-9478
▁मक	-9479
▁cab	-9480
▁पीने	-9481
▁stick	-9482
▁नवंबर	-9483
▁dischar	-9484
▁forests	-9485
▁प्रदूषण	-9486
▁substance	-9487
▁comprehens	-9488
▁environmental	-9489
▁cd	-9490
▁वस	-9491
ague	-9492
iant	-9493
▁jur	-9494
▁रिज	-9495
▁बोली	-9496
▁लिंक	-9497
▁mahab	-9498
▁दिखाने	-9499
▁thoughts	-9500
▁excellency	-9501
hel	-9502
क्क	-9503
राही	-9504
▁सचे	-9505
▁fing	-9506
▁चीजों	-9507
▁button	-9508
▁liquid	-9509
▁तमिलना	-9510
.09	-9511
asm	-9512
कीन	-9513
ग्ध	-9514
▁delay	-9515
▁merely	-9516
▁skills	-9517
▁transp	-9518
▁काफ़िर	-9519
▁दीक्षा	-9520
▁पहुंचे	-9521
▁`	-9522
साइ	-9523
सीसी	-9524
ानिक	-9525
▁घटक	-9526
▁कागज	-9527
▁घाटी	-9528
▁habit	-9529
▁पूर्ति	-9530
▁स्थाना	-9531
▁विद्वान	-9532
▁decisions	-9533
▁operating	-9534
▁sacrifice	-9535
रक	-9536
सागर	-9537
▁fib	-9538
inated	-9539
▁विपणन	-9540
ception	-9541
▁waiting	-9542
▁settings	-9543
▁initiative	-9544
ष्णु	-9545
▁fis	-9546
▁छाप	-9547
▁पलट	-9548
▁2010	-9549
▁बख्श	-9550
▁जयंती	-9551
▁बन्दे	-9552
▁tonnes	-9553
▁गांधीजी	-9554
▁ज़िम्मे	-9555
▁identified	-9556
▁10.	-9557
erted	-9558
▁फ़ैस	-9559
▁sympt	-9560
▁चन्द्र	-9561
▁forgive	-9562
▁बैंकिंग	-9563
▁elections	-9564
ंठ	-9565
क़ी	-9566
्रेट	-9567
▁www	-9568
urved	-9569
▁russ	-9570
▁doers	-9571
▁लड़की	-9572
▁calend	-9573
▁suffer	-9574
▁attitude	-9575
▁”-	-9576
alid	-9577
dule	-9578
▁hyd	-9579
▁भरे	-9580
▁lock	-9581
▁plug	-9582
▁candid	-9583
▁सावधानी	-9584
▁analysis	-9585
▁relation	-9586
▁infection	-9587
▁implemented	-9588
40	-9589
र्वर	-9590
▁gat	-9591
▁2003	-9592
▁सोने	-9593
▁theat	-9594
▁sought	-9595
▁अनुसूचित	-9596
▁dedicated	-9597
▁Z	-9598
jan	-9599
▁00	-9600
▁शौ	-9601
otic	-9602
▁घड़ी	-9603
▁बैठा	-9604
▁enemy	-9605
▁आयुर्	-9606
▁ऊंचाई	-9607
▁धारणा	-9608
न्थ	-9609
त्ती	-9610
▁क्व	-9611
▁परम	-9612
▁1956	-9613
▁तौबा	-9614
▁लाते	-9615
▁स्वतः	-9616
respond	-9617
▁तत्वों	-9618
▁मिश्रण	-9619
▁प्राधिकरण	-9620
संच	-9621
ेंद	-9622
iced	-9623
ल्ला	-9624
▁ब्य	-9625
▁gall	-9626
▁steel	-9627
▁warner	-9628
▁त्रुटिः	-9629
▁वाणिज्यिक	-9630
▁commitment	-9631
▁रोज़	-9632
▁audio	-9633
▁drama	-9634
▁रहस्य	-9635
▁mughal	-9636
▁subhas	-9637
▁इकट्ठा	-9638
▁talking	-9639
▁अक्तूबर	-9640
▁principle	-9641
▁प्रतिष्ठित	-9642
ding	-9643
शिष्ट	-9644
▁chat	-9645
▁चीनी	-9646
▁धारण	-9647
▁hills	-9648
▁multi	-9649
▁stars	-9650
▁earned	-9651
▁समानता	-9652
▁सावधान	-9653
▁उपलब्धि	-9654
▁शिक्षकों	-9655
▁fundamental	-9656
दल	-9657
.10	-9658
यदि	-9659
▁चू	-9660
▁रौ	-9661
ammu	-9662
िलों	-9663
कार्य	-9664
bedkar	-9665
▁entit	-9666
▁stands	-9667
▁applied	-9668
▁counter	-9669
▁मित्रों	-9670
▁समर्थित	-9671
wa	-9672
रह	-9673
लक	-9674
▁वकील	-9675
▁साफ़	-9676
iments	-9677
प्रदान	-9678
ालियों	-9679
▁escape	-9680
▁अभिप्रेत	-9681
▁प्रविष्टि	-9682
gi	-9683
बूल	-9684
मेरे	-9685
▁दास	-9686
▁रद्द	-9687
▁अंतरण	-9688
▁सुनते	-9689
▁afford	-9690
▁choice	-9691
▁guilty	-9692
▁समझौते	-9693
▁ordinary	-9694
▁universal	-9695
▁दुर्भाग्य	-9696
/-	-9697
lls	-9698
मोह	-9699
▁नक्	-9700
▁bact	-9701
▁साहब	-9702
▁अमेरिक	-9703
▁नीतियों	-9704
▁designed	-9705
▁distinct	-9706
▁efficient	-9707
▁swami	-9708
▁पहुँचे	-9709
▁युक्ति	-9710
▁पदार्थों	-9711
▁correspond	-9712
▁कू	-9713
norm	-9714
▁dan	-9715
▁दीन	-9716
▁नार	-9717
▁फ़ॉ	-9718
तावनी	-9719
भाँति	-9720
▁sikh	-9721
▁spot	-9722
▁zone	-9723
▁बिता	-9724
▁brief	-9725
▁समझता	-9726
▁empire	-9727
▁tender	-9728
▁schedule	-9729
▁प्रारम्भ	-9730
▁48	-9731
▁नक	-9732
ithm	-9733
सलों	-9734
स्तु	-9735
▁नाथ	-9736
प्रभु	-9737
▁cloth	-9738
▁अग्नि	-9739
क्षिप्त	-9740
▁सिंचाई	-9741
▁ambedkar	-9742
▁approved	-9743
▁विद्यार्थी	-9744
▁आज़	-9745
▁शक़	-9746
क़रीब	-9747
म्परा	-9748
▁compar	-9749
▁sardar	-9750
▁compens	-9751
▁replace	-9752
▁अस्थायी	-9753
“”	-9754
cra	-9755
ष्ठा	-9756
▁रिक्त	-9757
▁partner	-9758
▁पंजीकृत	-9759
▁truthful	-9760
)?	-9761
अल	-9762
▁यो	-9763
▁obst	-9764
▁पोषण	-9765
▁bount	-9766
▁deleg	-9767
▁फार्म	-9768
▁कठिनाई	-9769
▁becoming	-9770
▁centuries	-9771
rem	-9772
मुच	-9773
▁सन	-9774
▁jammu	-9775
▁अंकित	-9776
▁सिविल	-9777
▁feature	-9778
▁objects	-9779
▁कारोबार	-9780
र्त	-9781
oral	-9782
न्दी	-9783
▁mas	-9784
▁labor	-9785
▁trave	-9786
▁आबादी	-9787
▁theory	-9788
▁thereof	-9789
▁extremely	-9790
▁functioning	-9791
ंटा	-9792
ब्ल	-9793
ुरा	-9794
writ	-9795
र्दू	-9796
▁baby	-9797
▁आएगा	-9798
▁गर्भ	-9799
▁चिंत	-9800
▁डाले	-9801
▁bones	-9802
▁चीज़ों	-9803
▁decades	-9804
▁demonst	-9805
▁explain	-9806
cip	-9807
संप	-9808
▁चेक	-9809
▁गौरव	-9810
▁लगती	-9811
▁flower	-9812
ibilities	-9813
▁constitu	-9814
▁covering	-9815
-200	-9816
▁खतर	-9817
▁renew	-9818
▁treas	-9819
▁कार्ब	-9820
▁अवधारण	-9821
▁वरिष्ठ	-9822
▁unknown	-9823
▁wherein	-9824
▁appeared	-9825
▁narendra	-9826
hu	-9827
how	-9828
▁lik	-9829
▁{0}	-9830
▁खिल	-9831
▁cris	-9832
▁saty	-9833
▁आखिर	-9834
▁कारक	-9835
▁चीजें	-9836
▁attach	-9837
▁पृष्ठभूमि	-9838
▁tu	-9839
hern	-9840
▁row	-9841
▁प्रजनन	-9842
▁forever	-9843
▁कोलकाता	-9844
▁आमंत्रित	-9845
▁celebrated	-9846
▁व्यक्तित्व	-9847
▁manufacture	-9848
्यूल	-9849
iders	-9850
▁dign	-9851
▁furn	-9852
▁आपसे	-9853
▁disob	-9854
▁solid	-9855
▁तस्वीर	-9856
▁blessed	-9857
▁elected	-9858
▁चेतावनी	-9859
▁डाउनलोड	-9860
▁machinery	-9861
▁officials	-9862
alam	-9863
कर्ष	-9864
▁drop	-9865
▁लिंग	-9866
▁बस्ती	-9867
▁सचमुच	-9868
▁seemed	-9869
▁शर्तों	-9870
▁धन्यवाद	-9871
▁creative	-9872
▁tribunal	-9873
▁L	-9874
▁08	-9875
▁बेल	-9876
▁मेन	-9877
▁sick	-9878
▁vacc	-9879
▁ढूंढ	-9880
▁सहमत	-9881
▁plans	-9882
▁behalf	-9883
▁detailed	-9884
▁expenses	-9885
▁organised	-9886
▁monitoring	-9887
ंडा	-9888
icit	-9889
force	-9890
▁node	-9891
▁उड़ा	-9892
▁तलाश	-9893
▁राजक	-9894
▁साइट	-9895
▁साहस	-9896
▁उन्नत	-9897
▁ढांचा	-9898
▁हिंसा	-9899
▁islands	-9900
▁database	-9901
खन	-9902
ुन	-9903
ंख्य	-9904
ुक्त	-9905
▁चिप	-9906
▁अभिक	-9907
▁उपनि	-9908
▁लाइस	-9909
▁street	-9910
▁submit	-9911
▁organized	-9912
▁sustainable	-9913
▁मं	-9914
राशि	-9915
▁fee	-9916
▁अवि	-9917
▁किले	-9918
▁रीति	-9919
▁paral	-9920
▁प्रास	-9921
▁महीनों	-9922
▁concent	-9923
▁subsequ	-9924
▁complain	-9925
hent	-9926
oser	-9927
स्तर	-9928
हिता	-9929
▁1000	-9930
▁अगली	-9931
▁काले	-9932
▁enhan	-9933
▁चाहें	-9934
▁निवास	-9935
▁संभवतः	-9936
▁markets	-9937
▁universe	-9938
¤2	-9939
▁नरे	-9940
ोत्तर	-9941
▁2019	-9942
▁गिरा	-9943
▁colon	-9944
▁ocean	-9945
▁satan	-9946
▁seeds	-9947
▁walls	-9948
▁ग़रज़	-9949
▁तत्काल	-9950
▁मेहरबान	-9951
▁corporate	-9952
▁yourselves	-9953
दूरी	-9954
▁वां	-9955
▁defe	-9956
▁urdu	-9957
▁paras	-9958
▁पड़ती	-9959
▁रोगों	-9960
▁defend	-9961
▁signed	-9962
▁invalid	-9963
▁उपयोक्ता	-9964
इश	-9965
.05	-9966
कोश	-9967
साम	-9968
▁186	-9969
▁kit	-9970
▁अम्	-9971
hance	-9972
othes	-9973
▁core	-9974
▁एकदम	-9975
▁तुमपर	-9976
▁narrow	-9977
▁architecture	-9978
▁consciousness	-9979
19	-9980
खाव	-9981
lets	-9982
▁clim	-9983
▁tong	-9984
▁कष्ट	-9985
▁कहां	-9986
▁कार्	-9987
▁गुजर	-9988
▁पैके	-9989
▁अकेले	-9990
▁स्वर्ण	-9991
▁gathered	-9992
▁properly	-9993
▁addressed	-9994
bal	-9995
ंजा	-9996
सोस	-9997
सिंह	-9998
▁115	-9999
▁2004	-10000
▁prec	-10001
▁दुखद	-10002
soever	-10003
▁incor	-10004
▁प्रेस	-10005
▁delete	-10006
▁classes	-10007
▁enhance	-10008
▁peoples	-10009
▁quickly	-10010
▁अभिदाता	-10011
mu	-10012
कुछ	-10013
मति	-10014
▁9.	-10015
cont	-10016
▁dar	-10017
▁rub	-10018
▁tid	-10019
स्पति	-10020
▁पेशे	-10021
▁clust	-10022
▁facts	-10023
▁thick	-10024
▁utter	-10025
▁इन्कार	-10026
▁कनेक्ट	-10027
▁depends	-10028
▁victory	-10029
्मी	-10030
▁अय	-10031
धारी	-10032
्वाह	-10033
▁desk	-10034
▁खतरा	-10035
▁रामा	-10036
▁रुचि	-10037
▁binoy	-10038
▁cance	-10039
▁closed	-10040
▁समन्वय	-10041
▁citizen	-10042
▁equally	-10043
▁announced	-10044
-3	-10045
ेरे	-10046
▁आओ	-10047
▁आक	-10048
▁hun	-10049
▁आनु	-10050
▁दुर	-10051
▁pret	-10052
▁unse	-10053
▁उल्ल	-10054
▁trend	-10055
▁हत्या	-10056
diction	-10057
▁contra	-10058
▁appears	-10059
▁housing	-10060
▁immense	-10061
▁married	-10062
▁प्रतिभूति	-10063
▁शक्तिशाली	-10064
▁irrigation	-10065
▁temperature	-10066
पादित	-10067
▁flat	-10068
▁impl	-10069
▁स्की	-10070
▁juris	-10071
▁appell	-10072
▁formal	-10073
▁palace	-10074
▁happens	-10075
▁jawahar	-10076
▁तमिलनाडु	-10077
▁वैज्ञानिकों	-10078
him	-10079
श्र	-10080
्मा	-10081
्रोल	-10082
▁तैय	-10083
arian	-10084
▁फेंक	-10085
▁costs	-10086
▁सीखने	-10087
▁throne	-10088
▁elephant	-10089
▁framework	-10090
▁निर्देशिका	-10091
खो	-10092
ज़िर	-10093
▁dur	-10094
▁इंद	-10095
▁पैसा	-10096
▁इंग्ल	-10097
▁कीटों	-10098
▁ज़रुर	-10099
▁जीवों	-10100
▁exalted	-10101
▁formation	-10102
pto	-10103
ढ़ा	-10104
स्‍त	-10105
▁ऑंख	-10106
▁चमक	-10107
▁holy	-10108
icious	-10109
▁holds	-10110
▁bottom	-10111
▁broken	-10112
▁authent	-10113
▁patience	-10114
▁प्रतिदिन	-10115
,"	-10116
oso	-10117
पेश	-10118
▁खनि	-10119
▁spend	-10120
▁shaped	-10121
▁आलोचना	-10122
▁जिम्मेदार	-10123
लोग	-10124
▁बचत	-10125
cript	-10126
▁बाज़	-10127
▁कहेगा	-10128
▁पंडित	-10129
erences	-10130
▁मोबाइल	-10131
▁sending	-10132
▁northern	-10133
▁proposed	-10134
thy	-10135
▁lt	-10136
▁दान	-10137
न्दगी	-10138
▁क्ला	-10139
▁विजे	-10140
▁dynam	-10141
▁सच्चा	-10142
▁category	-10143
▁नकारात्मक	-10144
▁committees	-10145
▁undertaken	-10146
रेख	-10147
▁नान	-10148
▁फोन	-10149
▁cric	-10150
▁अपरि	-10151
▁घाटे	-10152
▁rajya	-10153
▁शानदार	-10154
▁अनक़रीब	-10155
▁conservation	-10156
jo	-10157
oo	-10158
▁लु	-10159
▁bind	-10160
▁मनोर	-10161
▁royal	-10162
▁expans	-10163
▁exports	-10164
▁गुमराही	-10165
यो	-10166
ज्ज	-10167
▁गै	-10168
▁jun	-10169
▁जीन	-10170
thern	-10171
▁hyder	-10172
▁नेशनल	-10173
▁exceed	-10174
▁vessel	-10175
▁empower	-10176
▁परम्परा	-10177
▁प्रतिबंध	-10178
▁कार्यवाही	-10179
pa	-10180
tes	-10181
▁गर	-10182
▁शेय	-10183
▁अंडे	-10184
▁बोला	-10185
▁शल्य	-10186
▁glory	-10187
▁ब्रह्म	-10188
▁proposal	-10189
▁चुनौतियों	-10190
",	-10191
arya	-10192
▁van	-10193
▁रिस	-10194
▁1947	-10195
▁evol	-10196
▁प्लग	-10197
क्ताओं	-10198
▁वर्मा	-10199
▁पड़ेगा	-10200
▁मूलभूत	-10201
▁जातियों	-10202
▁compared	-10203
▁सकारात्मक	-10204
cs	-10205
दुर	-10206
▁psy	-10207
rible	-10208
▁नस्ल	-10209
▁मारे	-10210
▁डिजिटल	-10211
▁परिभाषित	-10212
▁प्रयोगशाला	-10213
▁उभ	-10214
▁alt	-10215
while	-10216
▁diet	-10217
▁myst	-10218
▁रसायन	-10219
राष्ट्र	-10220
▁abnorm	-10221
▁farmer	-10222
▁परत	-10223
▁पाये	-10224
▁मधुम	-10225
ivative	-10226
▁मुक्ति	-10227
▁पहुंचने	-10228
▁recovery	-10229
▁territory	-10230
▁विश्वसनीय	-10231
▁hop	-10232
▁बडी	-10233
अज़ाब	-10234
▁गर्व	-10235
▁abund	-10236
▁whoso	-10237
▁अन्दर	-10238
▁बताता	-10239
▁लगाना	-10240
▁तापमान	-10241
▁despite	-10242
▁dispute	-10243
▁विनिर्माण	-10244
ूली	-10245
▁37	-10246
raid	-10247
▁vishn	-10248
▁थोड़े	-10249
▁रोज़ी	-10250
▁decide	-10251
▁instance	-10252
▁protocol	-10253
▁असामान्य	-10254
▁पुस्तकें	-10255
▁availability	-10256
▁५	-10257
सेस	-10258
osure	-10259
▁trem	-10260
▁twel	-10261
▁आँखों	-10262
▁simply	-10263
▁अन्यथा	-10264
▁trading	-10265
ila	-10266
▁alle	-10267
▁चावल	-10268
▁भ्रम	-10269
▁deity	-10270
▁वस्तुत	-10271
▁capable	-10272
rie	-10273
फ़र	-10274
▁(5	-10275
▁‘%	-10276
▁alg	-10277
▁chh	-10278
▁rid	-10279
▁ऊतक	-10280
▁diss	-10281
▁रहमत	-10282
▁explo	-10283
▁योग्यता	-10284
▁आभ	-10285
oned	-10286
वेशन	-10287
rence	-10288
▁elig	-10289
▁kolk	-10290
▁आश्व	-10291
▁यहीं	-10292
▁mixed	-10293
▁प्लेट	-10294
aitanya	-10295
▁बांग्ला	-10296
▁लाइसेंस	-10297
▁सम्बन्धी	-10298
▁movements	-10299
▁significance	-10300
याय	-10301
ounce	-10302
▁reck	-10303
ladesh	-10304
▁ignor	-10305
▁जिनको	-10306
▁विष्णु	-10307
▁railways	-10308
▁संक्षिप्त	-10309
गन	-10310
ूष	-10311
▁1/	-10312
▁आफ	-10313
▁bah	-10314
▁आदम	-10315
icate	-10316
riber	-10317
कीर्ण	-10318
▁2009	-10319
▁क्षण	-10320
▁लेती	-10321
▁सीधी	-10322
▁जितनी	-10323
▁actions	-10324
▁गिरफ्तार	-10325
oti	-10326
▁खाद	-10327
▁नती	-10328
▁पूर	-10329
ender	-10330
osite	-10331
चालित	-10332
▁dear	-10333
▁डॉलर	-10334
▁संगम	-10335
▁fluid	-10336
▁layer	-10337
▁border	-10338
▁सन्तान	-10339
▁european	-10340
▁quantity	-10341
▁मुक़ाबले	-10342
▁इलेक्ट्रॉनिक	-10343
नान	-10344
मंड	-10345
माता	-10346
▁जीत	-10347
ishing	-10348
▁noted	-10349
▁उर्दू	-10350
▁पंचाय	-10351
▁हितों	-10352
▁slight	-10353
▁व्यापारी	-10354
▁followers	-10355
▁judgement	-10356
▁N	-10357
पन्न	-10358
ाहिर	-10359
▁hit	-10360
▁भाष्	-10361
▁सचेत	-10362
▁कीजिए	-10363
▁resist	-10364
▁मानवता	-10365
▁chaitanya	-10366
▁improvement	-10367
▁एल्	-10368
▁fuel	-10369
▁plot	-10370
▁फोटो	-10371
▁दाहिने	-10372
▁पीड़ित	-10373
▁arrived	-10374
▁बौद्धिक	-10375
▁american	-10376
▁processes	-10377
▁opposition	-10378
▁constituted	-10379
ेय	-10380
निस	-10381
▁एव	-10382
▁यथ	-10383
▁जिनसे	-10384
▁बोलते	-10385
विश्वास	-10386
▁गतिविधि	-10387
▁छुटकारा	-10388
▁bringing	-10389
▁identity	-10390
ंभव	-10391
rees	-10392
▁लार	-10393
▁शरण	-10394
▁दार्	-10395
▁heads	-10396
▁reply	-10397
▁जोड़े	-10398
▁मानता	-10399
▁संवेद	-10400
▁couple	-10401
▁overall	-10402
▁विद्यालय	-10403
वती	-10404
रखाव	-10405
▁mig	-10406
oning	-10407
▁arms	-10408
▁drug	-10409
▁लाना	-10410
urally	-10411
▁pages	-10412
▁अपमान	-10413
▁शत्रु	-10414
▁crores	-10415
▁golden	-10416
▁sacred	-10417
▁thirty	-10418
▁billion	-10419
आरए	-10420
▁जू	-10421
जीवी	-10422
त्ते	-10423
▁1950	-10424
▁ment	-10425
▁भड़क	-10426
दराबाद	-10427
▁अन्तर	-10428
▁रहमान	-10429
▁brings	-10430
▁stones	-10431
▁thanks	-10432
▁हिंदुस्तान	-10433
arc	-10434
पीएस	-10435
▁ताला	-10436
▁afraid	-10437
▁गणराज्य	-10438
▁पुस्तिका	-10439
कू	-10440
aman	-10441
ंशिक	-10442
▁sequ	-10443
▁abode	-10444
▁owners	-10445
entially	-10446
▁writers	-10447
▁चाहेंगे	-10448
▁normally	-10449
▁क्षमाशील	-10450
rel	-10451
ंधन	-10452
क्रिप	-10453
▁metal	-10454
▁spect	-10455
▁pieces	-10456
▁accused	-10457
▁enabled	-10458
▁calendar	-10459
▁कुफ्फ़ार	-10460
▁gradually	-10461
▁comprehensive	-10462
इल	-10463
van	-10464
उंड	-10465
▁दाख	-10466
ंतरित	-10467
▁यानी	-10468
▁समाय	-10469
दाताओं	-10470
▁arbit	-10471
▁roads	-10472
वित	-10473
ंदगी	-10474
जीवन	-10475
धर्म	-10476
भावना	-10477
▁clay	-10478
▁shop	-10479
▁गोरा	-10480
▁मौलिक	-10481
▁tidings	-10482
▁drinking	-10483
▁integral	-10484
era	-10485
▁'.	-10486
hara	-10487
ifted	-10488
वाहित	-10489
▁psych	-10490
▁गर्मी	-10491
▁जापान	-10492
▁aspect	-10493
▁occurs	-10494
▁४	-10495
odh	-10496
इयां	-10497
शाही	-10498
▁pip	-10499
▁बसव	-10500
stood	-10501
▁गुरू	-10502
▁माध्य	-10503
▁deeply	-10504
▁panchay	-10505
▁tourist	-10506
उप	-10507
दित	-10508
डीएफ	-10509
▁cham	-10510
▁मानी	-10511
▁match	-10512
▁टुकड़े	-10513
▁संहिता	-10514
▁महाभारत	-10515
▁शक्तियों	-10516
▁devi	-10517
▁rect	-10518
▁shak	-10519
▁खण्ड	-10520
▁पांड	-10521
▁tools	-10522
▁desert	-10523
▁संतुलन	-10524
▁प्रसंस्	-10525
▁outstanding	-10526
पह	-10527
pat	-10528
जलि	-10529
▁फु	-10530
लिया	-10531
▁raw	-10532
▁ठहर	-10533
▁2018	-10534
▁thor	-10535
▁अकाद	-10536
▁गुणा	-10537
▁फर्म	-10538
▁वांछ	-10539
ranath	-10540
▁traff	-10541
घर	-10542
ris	-10543
vid	-10544
ैया	-10545
▁dro	-10546
▁era	-10547
▁hom	-10548
▁आँख	-10549
usted	-10550
▁jinn	-10551
▁पाता	-10552
▁armed	-10553
▁minds	-10554
▁अंतराल	-10555
▁kolkata	-10556
▁pleased	-10557
▁expansion	-10558
लन	-10559
iet	-10560
irt	-10561
ूल्य	-10562
▁अली	-10563
ड़िया	-10564
▁flood	-10565
▁छोड़ा	-10566
▁सहमति	-10567
▁स्टेशन	-10568
▁deposits	-10569
▁imperial	-10570
▁judicial	-10571
▁organizations	-10572
¤¤	-10573
▁34	-10574
back	-10575
bell	-10576
▁कहे	-10577
▁कोष	-10578
▁तिल	-10579
▁shad	-10580
▁दांत	-10581
▁sweet	-10582
▁अस्थि	-10583
▁कराना	-10584
▁नेअमत	-10585
▁स्वभाव	-10586
iversary	-10587
▁अंग्रेज	-10588
▁निकालने	-10589
▁approval	-10590
▁constructed	-10591
▁transaction	-10592
▁contemporary	-10593
▁छत	-10594
्वान	-10595
▁cart	-10596
▁गहरे	-10597
▁upgra	-10598
▁दिमाग	-10599
▁फसलों	-10600
कांक्षा	-10601
▁दिखाता	-10602
▁निकलने	-10603
▁बुलाया	-10604
▁theatre	-10605
▁soldiers	-10606
▁discussed	-10607
▁solutions	-10608
▁subscriber	-10609
▁kov	-10610
▁असल	-10611
iance	-10612
ड़ीसा	-10613
▁menu	-10614
▁भक्त	-10615
▁index	-10616
▁cricket	-10617
▁substit	-10618
ॉट	-10619
dev	-10620
जैसे	-10621
▁पाप	-10622
▁grew	-10623
▁वार्	-10624
▁तीर्थ	-10625
▁obtain	-10626
▁नदियों	-10627
▁संवेदन	-10628
▁प्रत्या	-10629
▁reported	-10630
bon	-10631
che	-10632
▁गू	-10633
▁नहर	-10634
erring	-10635
▁पर्वत	-10636
▁भर्ती	-10637
▁crisis	-10638
▁editor	-10639
▁पुष्टि	-10640
▁रसूलों	-10641
▁absence	-10642
▁personnel	-10643
▁entrepreneur	-10644
नेह	-10645
▁il	-10646
काया	-10647
▁उपर	-10648
▁खबर	-10649
देशों	-10650
▁pras	-10651
▁marks	-10652
▁sanct	-10653
▁उर्वर	-10654
▁लंबाई	-10655
▁conven	-10656
▁unfortun	-10657
▁initiated	-10658
▁bangladesh	-10659
लाद	-10660
▁ja	-10661
esty	-10662
▁runs	-10663
▁floor	-10664
▁अस्वी	-10665
▁invited	-10666
▁जवाहरलाल	-10667
▁रवीन्द्रनाथ	-10668
चाप	-10669
प्ट	-10670
स्को	-10671
▁गईं	-10672
▁भरपूर	-10673
दर्शिता	-10674
▁वनस्पति	-10675
▁millions	-10676
▁हैदराबाद	-10677
▁excellence	-10678
▁mm	-10679
that	-10680
क्कर	-10681
▁चतु	-10682
▁shiva	-10683
▁throw	-10684
▁गहराई	-10685
▁वंचित	-10686
▁संगणक	-10687
▁motion	-10688
▁अवधारणा	-10689
▁hyderabad	-10690
▁continuous	-10691
▁successfully	-10692
▁H	-10693
िमा	-10694
comm	-10695
▁एक्	-10696
▁परे	-10697
▁रूस	-10698
विमर्श	-10699
▁alive	-10700
▁chain	-10701
▁बढ़ते	-10702
▁स्मरण	-10703
▁hasten	-10704
▁definite	-10705
▁writings	-10706
▁telephone	-10707
▁regulations	-10708
वानी	-10709
▁तना	-10710
ifies	-10711
tings	-10712
▁afgh	-10713
▁aims	-10714
▁boys	-10715
▁hide	-10716
▁गठित	-10717
▁laugh	-10718
▁procl	-10719
▁संभाल	-10720
▁linked	-10721
▁तरीकों	-10722
▁पुराना	-10723
▁प्रभाग	-10724
▁स्वामित्व	-10725
▁appointment	-10726
सूर	-10727
भाषण	-10728
▁बनकर	-10729
▁हमसे	-10730
▁pilgr	-10731
▁डिग्री	-10732
▁charged	-10733
▁महाराजा	-10734
▁circular	-10735
▁humanity	-10736
श्री	-10737
▁fet	-10738
▁aust	-10739
▁मासिक	-10740
▁waters	-10741
▁speaker	-10742
▁प्रासंगिक	-10743
▁personality	-10744
शः	-10745
▁नु	-10746
▁पढ	-10747
▁12.	-10748
▁mir	-10749
▁oath	-10750
▁आपसी	-10751
▁react	-10752
▁यूनिट	-10753
▁madhya	-10754
▁श्रद्ध	-10755
▁communal	-10756
▁कार्यकला	-10757
▁investors	-10758
▁jawaharlal	-10759
▁कब्	-10760
▁पाय	-10761
▁gift	-10762
▁weap	-10763
▁देगी	-10764
पूर्ति	-10765
▁दरबार	-10766
▁निरूप	-10767
▁career	-10768
▁municip	-10769
▁prevail	-10770
▁whereas	-10771
▁temporary	-10772
▁respective	-10773
▁differences	-10774
▁proceedings	-10775
िपि	-10776
ught	-10777
▁परो	-10778
ाइलों	-10779
▁दादा	-10780
▁बंदर	-10781
▁सवार	-10782
▁prote	-10783
▁attain	-10784
▁yellow	-10785
▁तुम्हे	-10786
▁रामायण	-10787
▁अनुमोदन	-10788
▁mahabhar	-10789
▁मनुष्यों	-10790
▁electronic	-10791
ni	-10792
▁na	-10793
oken	-10794
पश्च	-10795
▁cow	-10796
▁कोट	-10797
▁lose	-10798
▁tail	-10799
▁उद्ध	-10800
▁गाँव	-10801
▁मुर्	-10802
▁prove	-10803
▁लिखना	-10804
प्राप्त	-10805
▁आयुक्त	-10806
▁इन्हीं	-10807
▁सीमाओं	-10808
▁रिकॉर्ड	-10809
▁entirely	-10810
▁numerous	-10811
▁symptoms	-10812
▁buildings	-10813
क़्	-10814
विन	-10815
सेट	-10816
oked	-10817
ंतिक	-10818
निंग	-10819
▁mel	-10820
▁गवर्	-10821
▁सजदा	-10822
▁willing	-10823
▁रिकार्ड	-10824
▁criminal	-10825
▁directed	-10826
▁secondary	-10827
▁interested	-10828
▁traditions	-10829
▁considerable	-10830
▁automatically	-10831
ज़ख़	-10832
▁kid	-10833
▁ven	-10834
▁कथन	-10835
▁विरू	-10836
▁couldn	-10837
▁जायेगी	-10838
▁अमेरिकी	-10839
▁collected	-10840
rd	-10841
kan	-10842
▁10,	-10843
च्छिक	-10844
▁क्रमा	-10845
▁निगाह	-10846
▁sports	-10847
▁गुमराह	-10848
▁सुन्दर	-10849
▁professor	-10850
▁anniversary	-10851
▁instructions	-10852
अन	-10853
but	-10854
key	-10855
mat	-10856
गरी	-10857
▁nom	-10858
▁उपे	-10859
▁खून	-10860
वस्तु	-10861
▁संतु	-10862
▁homes	-10863
▁horse	-10864
▁vishnu	-10865
▁ayurved	-10866
▁classical	-10867
▁जम	-10868
▁मण	-10869
शब्द	-10870
श्रे	-10871
आख़िर	-10872
▁upto	-10873
▁wage	-10874
क्षणिक	-10875
▁pride	-10876
▁divide	-10877
▁starts	-10878
▁हजारों	-10879
▁हिमाचल	-10880
▁comfort	-10881
▁reprodu	-10882
▁diversity	-10883
▁estimated	-10884
▁submission	-10885
▁उद्देश्यों	-10886
▁देशवासियों	-10887
▁jurisdiction	-10888
टो	-10889
काय	-10890
▁पाइ	-10891
▁हिक	-10892
▁1957	-10893
▁ग्री	-10894
▁चट्ट	-10895
▁दावे	-10896
▁स्तन	-10897
▁laksh	-10898
▁तीनों	-10899
▁पैकेज	-10900
holders	-10901
▁cotton	-10902
▁समुचित	-10903
▁विन्यास	-10904
▁proportion	-10905
▁आत्मनिर्भर	-10906
▁celebrations	-10907
▁distinguished	-10908
किम	-10909
बली	-10910
last	-10911
क्सा	-10912
टकों	-10913
▁spr	-10914
rench	-10915
हारिक	-10916
▁gora	-10917
▁तूने	-10918
▁चलाया	-10919
▁illust	-10920
▁imposs	-10921
▁मुद्दे	-10922
▁शाखाओं	-10923
▁payable	-10924
▁ceremony	-10925
▁southern	-10926
▁प्रश्नों	-10927
▁corruption	-10928
ँग	-10929
िनल	-10930
▁क़ा	-10931
▁horiz	-10932
▁semin	-10933
▁पसन्द	-10934
▁offers	-10935
▁अग्रिम	-10936
▁न्यायिक	-10937
▁allowance	-10938
▁व्यवस्थित	-10939
aced	-10940
काने	-10941
तकों	-10942
बारी	-10943
▁अफ़	-10944
धिकारी	-10945
▁equals	-10946
▁repent	-10947
▁inherit	-10948
▁ब्राह्मण	-10949
▁applicable	-10950
▁transgress	-10951
,—	-10952
lis	-10953
▁jain	-10954
▁noah	-10955
▁भलाई	-10956
▁अंततः	-10957
▁अकेला	-10958
▁biggest	-10959
▁improved	-10960
▁repeated	-10961
▁arrangement	-10962
inc	-10963
क्‍	-10964
ोरी	-10965
▁टॉ	-10966
लयों	-10967
ुसार	-10968
▁cha	-10969
▁भले	-10970
▁chen	-10971
▁patri	-10972
▁सेटिंग	-10973
▁देवताओं	-10974
▁religions	-10975
▁facilitate	-10976
▁सिद्धांतों	-10977
10	-10978
▁छू	-10979
▁नज	-10980
पोषण	-10981
▁जाग	-10982
there	-10983
ushed	-10984
तुम्ह	-10985
▁कायम	-10986
▁leads	-10987
▁पार्क	-10988
▁flight	-10989
▁companions	-10990
▁contribute	-10991
▁vegetables	-10992
,'	-10993
yas	-10994
ैंक	-10995
▁wa	-10996
▁kam	-10997
▁इंत	-10998
▁जैन	-10999
▁सहन	-11000
▁asset	-11001
▁कैंसर	-11002
▁अमरीकी	-11003
▁घनिष्ठ	-11004
▁मुक़र्र	-11005
▁accordance	-11006
▁convocation	-11007
-8	-11008
तरे	-11009
▁vit	-11010
▁voc	-11011
▁bird	-11012
▁सिंध	-11013
▁owner	-11014
▁कुमार	-11015
▁संतोष	-11016
▁behavi	-11017
▁propag	-11018
▁आह्वान	-11019
▁सम्पर्क	-11020
▁entitled	-11021
▁organisations	-11022
ब्ब	-11023
भ्र	-11024
▁गिन	-11025
▁फिल	-11026
▁लोह	-11027
▁सड़	-11028
ested	-11029
ांजलि	-11030
▁myth	-11031
▁raja	-11032
▁पदों	-11033
active	-11034
ensions	-11035
▁launch	-11036
▁उड़ीसा	-11037
▁ज़ाहिर	-11038
▁परिचित	-11039
▁printed	-11040
▁विरूद्ध	-11041
▁संशोधित	-11042
▁admitted	-11043
▁उत्तरदायी	-11044
▁प्रक्रियाओं	-11045
ulty	-11046
ॉल्ट	-11047
ोनें	-11048
▁lal	-11049
▁फिट	-11050
inity	-11051
चरिता	-11052
▁edge	-11053
▁meat	-11054
▁depic	-11055
▁उन्हे	-11056
▁गुज़र	-11057
▁जायें	-11058
▁संपदा	-11059
▁knower	-11060
▁उपक्रम	-11061
▁settled	-11062
▁strategy	-11063
▁अंग्रेजों	-11064
▁settlement	-11065
नाह	-11066
स्थल	-11067
▁fab	-11068
▁नबी	-11069
ourse	-11070
▁rati	-11071
▁उपास	-11072
▁जुड़	-11073
▁अभिगम	-11074
▁afghan	-11075
▁recall	-11076
▁तैयारी	-11077
▁प्रेमच	-11078
▁islamic	-11079
ifications	-11080
2)	-11081
.06	-11082
फ़ा	-11083
कियों	-11084
धानिक	-11085
▁रिजर्व	-11086
▁cabinet	-11087
▁सुधारों	-11088
▁acquired	-11089
▁explained	-11090
▁व्यापारिक	-11091
▁R	-11092
▁आब	-11093
कल्प	-11094
फेसर	-11095
▁घास	-11096
▁रेड	-11097
▁drum	-11098
▁forb	-11099
▁vidy	-11100
▁absor	-11101
▁scope	-11102
▁harvest	-11103
▁amendment	-11104
▁component	-11105
ट्	-11106
gery	-11107
प्रद	-11108
ुरान	-11109
ग्रहण	-11110
ष्कार	-11111
▁अब्द	-11112
▁आकलन	-11113
▁शराब	-11114
▁tribes	-11115
▁अभिभाषण	-11116
▁मुलाकात	-11117
▁सुचरिता	-11118
▁buddhist	-11119
▁उपलब्धता	-11120
▁daughters	-11121
रु	-11122
प्न	-11123
लास	-11124
ोटी	-11125
▁oh	-11126
तरित	-11127
▁फार	-11128
▁बडे	-11129
▁सतत	-11130
hetic	-11131
▁approx	-11132
▁papers	-11133
▁परिवेश	-11134
▁समितियों	-11135
▁associate	-11136
aà	-11137
heb	-11138
iya	-11139
िश्र	-11140
▁dal	-11141
▁जमी	-11142
द्दीन	-11143
स्तानी	-11144
▁draft	-11145
▁phone	-11146
▁burden	-11147
▁cancer	-11148
▁imagine	-11149
▁displayed	-11150
▁presentation	-11151
¤®	-11152
.07	-11153
hus	-11154
चलन	-11155
▁धम	-11156
▁अवय	-11157
▁दुआ	-11158
दृश्य	-11159
▁jobs	-11160
▁तेरी	-11161
▁बनता	-11162
▁email	-11163
▁lying	-11164
▁गुणों	-11165
▁spring	-11166
▁अवज्ञा	-11167
▁संपन्न	-11168
▁penalty	-11169
▁औऱ	-11170
▁hrs	-11171
▁lah	-11172
▁ड्र	-11173
▁हां	-11174
arita	-11175
▁enqu	-11176
▁सूजन	-11177
▁gupta	-11178
▁सम्रा	-11179
▁comment	-11180
▁persian	-11181
▁उत्पादक	-11182
▁संरक्षक	-11183
▁समाप्ति	-11184
▁institutes	-11185
बो	-11186
सास	-11187
ूकता	-11188
▁gan	-11189
▁tig	-11190
▁arts	-11191
▁legs	-11192
▁मोड़	-11193
▁agent	-11194
▁fifty	-11195
▁पालने	-11196
▁stages	-11197
▁रेडियो	-11198
▁courses	-11199
▁arranged	-11200
▁रचनात्मक	-11201
▁efficiency	-11202
▁consumption	-11203
ux	-11204
ेरत	-11205
▁ba	-11206
▁बीस	-11207
▁मक्	-11208
▁gent	-11209
▁मंडल	-11210
▁solve	-11211
▁पुष्प	-11212
▁सर्वि	-11213
▁सुनता	-11214
▁corner	-11215
▁आरंभिक	-11216
▁emotion	-11217
▁exactly	-11218
▁commonly	-11219
▁दीक्षांत	-11220
▁blessings	-11221
▁prominent	-11222
▁understood	-11223
cut	-11224
ुणा	-11225
दस्त	-11226
लांग	-11227
्‍या	-11228
▁उपज	-11229
▁सद्	-11230
▁pair	-11231
▁मेहन	-11232
▁sales	-11233
▁चिन्ह	-11234
▁basava	-11235
▁hardly	-11236
▁तुममें	-11237
▁दक्षता	-11238
▁रूपांत	-11239
▁योजनाएं	-11240
▁विद्रोह	-11241
▁impossible	-11242
▁व्युत्पन्न	-11243
ads	-11244
फ़ी	-11245
ायर	-11246
ouch	-11247
▁jay	-11248
▁mac	-11249
▁इस्	-11250
icked	-11251
मंत्र	-11252
▁snow	-11253
▁widely	-11254
▁एकीकृत	-11255
▁कुशलता	-11256
▁भड़कती	-11257
▁leaving	-11258
▁प्रोटोक	-11259
▁सम्मानित	-11260
ँव	-11261
apur	-11262
▁vot	-11263
▁नवी	-11264
▁भूख	-11265
▁आचरण	-11266
▁कृति	-11267
▁advoc	-11268
▁split	-11269
▁wills	-11270
oration	-11271
▁column	-11272
▁इंजीनियर	-11273
▁चिकित्सक	-11274
▁neighbour	-11275
▁communications	-11276
12	-11277
▁घु	-11278
cers	-11279
▁औषध	-11280
▁जाह	-11281
▁बुल	-11282
▁buff	-11283
▁subt	-11284
▁गद्य	-11285
▁बचाने	-11286
▁दुर्लभ	-11287
्द	-11288
umin	-11289
▁bam	-11290
▁haz	-11291
▁माने	-11292
▁जन्नत	-11293
▁बालों	-11294
▁वैदिक	-11295
▁unseen	-11296
▁अपराधी	-11297
▁कृतज्ञ	-11298
▁achievement	-11299
▁क़ु	-11300
▁बहस	-11301
enous	-11302
ondon	-11303
▁टर्म	-11304
▁डाली	-11305
▁teeth	-11306
▁चंद्र	-11307
▁निवार	-11308
▁धनराशि	-11309
▁dealing	-11310
▁inflamm	-11311
▁राजभाषा	-11312
▁फलस्वरूप	-11313
▁behaviour	-11314
▁विद्वानों	-11315
99	-11316
fo	-11317
नें	-11318
▁फौ	-11319
वारी	-11320
iform	-11321
गोलिक	-11322
▁ease	-11323
▁इसपर	-11324
▁रखती	-11325
▁wound	-11326
▁कालेज	-11327
▁refused	-11328
▁दक्षिणी	-11329
▁attended	-11330
▁meetings	-11331
▁क्रियान्व	-11332
▁पश	-11333
izes	-11334
▁asc	-11335
▁अरबी	-11336
▁links	-11337
▁उत्सव	-11338
▁condol	-11339
▁उपायों	-11340
▁कलाकार	-11341
प्रदायिक	-11342
ार्थियों	-11343
▁restrict	-11344
▁निष्क्रिय	-11345
▁विनिर्दिष्ट	-11346
▁contributions	-11347
ole	-11348
tery	-11349
they	-11350
▁tro	-11351
endra	-11352
त्रिम	-11353
▁icon	-11354
▁गेंद	-11355
▁रखकर	-11356
father	-11357
▁vedic	-11358
▁निचले	-11359
▁बनाएँ	-11360
▁अज्ञात	-11361
▁devices	-11362
▁quarter	-11363
▁seeking	-11364
▁himachal	-11365
▁multiply	-11366
▁occurred	-11367
▁निष्कर्ष	-11368
▁belonging	-11369
▁inspiration	-11370
ixt	-11371
जनों	-11372
▁rot	-11373
▁मुम	-11374
▁अद्व	-11375
▁usual	-11376
▁जानना	-11377
▁दाखिल	-11378
▁पक्षी	-11379
▁भांति	-11380
▁मतभेद	-11381
▁लाखों	-11382
▁अवतरित	-11383
▁लेखकों	-11384
▁somebody	-11385
▁creatures	-11386
▁competition	-11387
▁transmission	-11388
bb	-11389
asw	-11390
when	-11391
▁suit	-11392
▁wing	-11393
▁चलती	-11394
▁देशी	-11395
▁नाते	-11396
▁सीता	-11397
▁impart	-11398
▁sexual	-11399
▁appearance	-11400
▁publication	-11401
ईं	-11402
अनु	-11403
हाई	-11404
कर्म	-11405
▁pul	-11406
erior	-11407
▁ईंधन	-11408
▁डराने	-11409
▁pandit	-11410
▁visual	-11411
▁वर्णित	-11412
ulations	-11413
▁employee	-11414
▁patients	-11415
▁प्रोफेसर	-11416
▁structures	-11417
▁discussions	-11418
षे	-11419
बला	-11420
▁-.	-11421
देशी	-11422
र्फ़	-11423
संगत	-11424
ूनों	-11425
▁ack	-11426
▁gop	-11427
▁hal	-11428
▁rhy	-11429
▁tas	-11430
vision	-11431
▁अपनाने	-11432
▁प्रसाद	-11433
▁customs	-11434
▁desktop	-11435
▁इकाइयों	-11436
df	-11437
पल	-11438
शै	-11439
.04	-11440
▁वय	-11441
पक्ष	-11442
▁रोका	-11443
▁inhab	-11444
▁conclud	-11445
▁F	-11446
▁U	-11447
▁तह	-11448
ribe	-11449
सूत्र	-11450
▁sets	-11451
▁जाया	-11452
muhammad	-11453
▁stopped	-11454
▁बस्तियों	-11455
▁मुक़र्रर	-11456
▁improving	-11457
▁producing	-11458
▁हस्तक्षेप	-11459
▁destruction	-11460
एमई	-11461
book	-11462
▁uns	-11463
णियों	-11464
▁ईसाई	-11465
▁उतनी	-11466
▁शक्त	-11467
▁हमको	-11468
▁लिखते	-11469
▁वैष्ण	-11470
▁convert	-11471
ाफ	-11472
▁खर	-11473
वर्त	-11474
▁अजी	-11475
azing	-11476
▁doll	-11477
▁मौका	-11478
▁masses	-11479
▁burning	-11480
▁complic	-11481
▁musical	-11482
▁planned	-11483
▁संभावित	-11484
▁equality	-11485
▁terrible	-11486
▁continues	-11487
▁components	-11488
▁65	-11489
स्कट	-11490
▁अहि	-11491
▁roof	-11492
▁मुना	-11493
▁शांत	-11494
endous	-11495
▁grain	-11496
▁पिछली	-11497
ोक्ताओं	-11498
▁अर्पित	-11499
▁देखेंगे	-11500
▁परिश्रम	-11501
▁मुख्यतः	-11502
▁शास्त्र	-11503
▁promoting	-11504
▁technique	-11505
▁recognised	-11506
rol	-11507
▁हक	-11508
हारी	-11509
▁rig	-11510
▁बडा	-11511
▁वजन	-11512
▁nurs	-11513
▁tham	-11514
▁टिकट	-11515
brance	-11516
▁जानकर	-11517
▁फॉर्म	-11518
▁मान्य	-11519
▁शिल्प	-11520
▁limits	-11521
▁strike	-11522
▁अमरीका	-11523
तांत्रिक	-11524
▁fathers	-11525
▁greatly	-11526
▁जायेंगे	-11527
▁conflict	-11528
▁remaining	-11529
▁उपयोगकर्ता	-11530
▁प्रसंस्करण	-11531
▁""	-11532
ंसिल	-11533
▁इनसे	-11534
▁इसरा	-11535
▁ऊँचा	-11536
▁कृपा	-11537
▁गणित	-11538
▁बनना	-11539
▁शासक	-11540
ध्यक्ष	-11541
▁depth	-11542
▁करोगे	-11543
▁जिलों	-11544
▁फायदा	-11545
▁acknow	-11546
▁summit	-11547
▁इंडियन	-11548
▁आयुर्वेद	-11549
▁naturally	-11550
▁properties	-11551
▁compensation	-11552
ंघन	-11553
▁02	-11554
▁पच	-11555
▁scen	-11556
▁sole	-11557
▁ties	-11558
▁असली	-11559
▁नर्म	-11560
नेवालो	-11561
▁asses	-11562
▁socio	-11563
▁पोस्ट	-11564
▁विनाश	-11565
▁facing	-11566
▁अभ्यास	-11567
▁दोज़ख़	-11568
▁भौगोलिक	-11569
▁हिस्सों	-11570
▁organisms	-11571
80	-11572
care	-11573
▁अमल	-11574
india	-11575
क्राम	-11576
▁भरने	-11577
▁आंशिक	-11578
▁कटौती	-11579
▁दशकों	-11580
▁रूपों	-11581
▁लम्बी	-11582
▁allows	-11583
▁london	-11584
▁प्रशंस	-11585
▁servant	-11586
▁strange	-11587
▁trained	-11588
▁क्रिकेट	-11589
▁intelligence	-11590
▁configuration	-11591
▁नो	-11592
olly	-11593
pers	-11594
▁mud	-11595
▁acid	-11596
▁trip	-11597
▁भव्य	-11598
▁अक्षर	-11599
▁मनाया	-11600
▁मिलना	-11601
▁kovind	-11602
▁stayed	-11603
▁turning	-11604
▁प्रोटीन	-11605
▁ramayana	-11606
▁जागरूकता	-11607
▁ईमानदारों	-11608
▁अपेक्षाकृत	-11609
हवीं	-11610
ander	-11611
▁जनरल	-11612
▁हड्ड	-11613
▁इनपुट	-11614
▁silver	-11615
▁विभागों	-11616
▁emphasis	-11617
▁investments	-11618
▁recognition	-11619
▁notification	-11620
चिक	-11621
जिस	-11622
दरत	-11623
▁̈à	-11624
ping	-11625
बाबू	-11626
्राव	-11627
▁तरल	-11628
aging	-11629
▁टाइप	-11630
▁sites	-11631
▁tongue	-11632
▁क्रांतिक	-11633
di	-11634
xic	-11635
▁6,	-11636
▁१८	-11637
then	-11638
माना	-11639
▁इरा	-11640
▁शोर	-11641
▁सकी	-11642
▁salt	-11643
▁बुरे	-11644
▁रौशन	-11645
▁वाहन	-11646
rition	-11647
▁भाग्य	-11648
▁हिकमत	-11649
ulating	-11650
▁bridge	-11651
▁muscle	-11652
▁printer	-11653
▁प्रतिमा	-11654
▁everybody	-11655
▁परिवर्तनों	-11656
धक	-11657
▁दह	-11658
emed	-11659
ंक्शन	-11660
ियामत	-11661
▁curs	-11662
▁sins	-11663
▁आजकल	-11664
▁ज्या	-11665
▁तात्	-11666
▁दुःख	-11667
▁concl	-11668
▁kumar	-11669
▁आकर्षण	-11670
▁यथार्थ	-11671
▁contained	-11672
▁categories	-11673
.03	-11674
ंबेड	-11675
बंधी	-11676
▁agg	-11677
▁खेत	-11678
▁भंग	-11679
▁palm	-11680
▁tick	-11681
▁recru	-11682
▁saint	-11683
▁scene	-11684
ourable	-11685
▁begins	-11686
▁rulers	-11687
▁पंजाबी	-11688
▁advised	-11689
▁कृत्रिम	-11690
▁commerce	-11691
▁सिद्धान्त	-11692
▁derivative	-11693
▁achievements	-11694
mic	-11695
▁नै	-11696
omen	-11697
▁चाँ	-11698
▁trek	-11699
ंबेडकर	-11700
▁ratio	-11701
▁जितने	-11702
▁लड़का	-11703
▁हार्ड	-11704
▁stored	-11705
▁twelve	-11706
▁समीकरण	-11707
▁apostle	-11708
▁destroy	-11709
▁टिप्पणी	-11710
▁contents	-11711
▁essentially	-11712
▁arrangements	-11713
पय	-11714
sha	-11715
ups	-11716
▁03	-11717
▁py	-11718
▁खज	-11719
▁पेय	-11720
▁बैक	-11721
▁bath	-11722
▁phen	-11723
▁एमएस	-11724
▁नकदी	-11725
▁abide	-11726
▁bambo	-11727
▁deals	-11728
▁prayers	-11729
▁remarkable	-11730
ba	-11731
’.	-11732
▁६	-11733
ंकित	-11734
ल्लम	-11735
▁एयर	-11736
▁काउ	-11737
▁scat	-11738
▁tank	-11739
▁diagn	-11740
▁तीसरा	-11741
▁पशुओं	-11742
▁फूलों	-11743
▁सरकशी	-11744
▁deputy	-11745
▁बिन्दु	-11746
▁यूरोपीय	-11747
▁cultivation	-11748
▁remembrance	-11749
mp	-11750
शनी	-11751
्टा	-11752
ller	-11753
▁dil	-11754
▁ham	-11755
▁vib	-11756
▁फुट	-11757
▁अतीत	-11758
▁गर्भा	-11759
▁मिसाल	-11760
▁स्तरों	-11761
▁traffic	-11762
▁suggested	-11763
▁productivity	-11764
45	-11765
¥	-11766
ुश	-11767
शनिक	-11768
▁11.	-11769
▁rat	-11770
▁tot	-11771
▁छोड	-11772
▁मिथ	-11773
▁elev	-11774
▁fever	-11775
▁toler	-11776
▁wheat	-11777
▁mathem	-11778
▁मंजूरी	-11779
▁संगठित	-11780
▁demands	-11781
▁प्रबंधक	-11782
▁प्रसारण	-11783
▁employed	-11784
▁informed	-11785
▁presents	-11786
▁falsehood	-11787
▁immediate	-11788
▁preparation	-11789
यल	-11790
ोसी	-11791
▁इल	-11792
emic	-11793
lord	-11794
क्की	-11795
दत्त	-11796
लोगों	-11797
▁ends	-11798
▁race	-11799
▁किस्	-11800
▁दौरा	-11801
▁श्रो	-11802
ndered	-11803
worthy	-11804
▁algor	-11805
▁queen	-11806
▁towns	-11807
▁बाध्य	-11808
▁अर्जित	-11809
▁साधनों	-11810
inations	-11811
▁testing	-11812
▁compound	-11813
▁geograph	-11814
▁computers	-11815
¥	-11816
▁शेर	-11817
antic	-11818
नियां	-11819
स्कटॉप	-11820
▁panel	-11821
▁rising	-11822
▁माइक्रो	-11823
▁अधिसूचना	-11824
▁शैक्षणिक	-11825
▁interface	-11826
▁practical	-11827
▁revelation	-11828
▁प्राधिकारी	-11829
▁सफलतापूर्वक	-11830
▁difficulties	-11831
रात	-11832
▁2)	-11833
uity	-11834
umes	-11835
ालों	-11836
▁अलं	-11837
▁हड़	-11838
▁ख़ुश	-11839
▁घटित	-11840
▁टेक्	-11841
▁शादी	-11842
▁समूद	-11843
ensity	-11844
▁उद्यान	-11845
▁persist	-11846
▁सौभाग्य	-11847
▁strengthening	-11848
who	-11849
ख्य	-11850
▁कस	-11851
anta	-11852
itya	-11853
सेना	-11854
▁agra	-11855
▁आईटी	-11856
▁क्रमशः	-11857
▁ज़रूरत	-11858
▁सिर्फ़	-11859
▁trouble	-11860
▁आरक्षित	-11861
▁ज़िन्दा	-11862
▁guardian	-11863
▁व्यावहारिक	-11864
▁सामान्यतया	-11865
▁accompanied	-11866
चु	-11867
फू	-11868
दीक	-11869
लाक	-11870
िरण	-11871
anth	-11872
▁mit	-11873
▁shel	-11874
▁कराई	-11875
▁कर्ण	-11876
▁चाहा	-11877
▁लेगा	-11878
▁सिरे	-11879
चन्द्र	-11880
फ़ॉल्ट	-11881
▁एजेंस	-11882
ificial	-11883
▁farming	-11884
▁इंजीनिय	-11885
▁municipal	-11886
▁securities	-11887
▁civilization	-11888
ुण	-11889
exp	-11890
लाभ	-11891
▁55	-11892
ooth	-11893
▁alc	-11894
▁nps	-11895
▁आदत	-11896
▁पूज	-11897
urity	-11898
wered	-11899
▁खतरे	-11900
▁भरें	-11901
▁सब्र	-11902
▁circu	-11903
▁nerve	-11904
▁covers	-11905
▁gentle	-11906
▁निष्ठा	-11907
▁प्रसंग	-11908
▁फ़ैसला	-11909
▁bharati	-11910
▁desired	-11911
▁options	-11912
▁prepare	-11913
▁प्रतिबि	-11914
▁ईमानवालों	-11915
▁न्यायालयों	-11916
▁पैग़म्बरों	-11917
ूण	-11918
गों	-11919
टाई	-11920
▁कच	-11921
▁उठे	-11922
▁ज्व	-11923
▁झील	-11924
▁झों	-11925
▁सेक	-11926
▁सौंद	-11927
▁castes	-11928
▁saving	-11929
▁वार्ता	-11930
▁drawing	-11931
▁उल्लंघन	-11932
▁परिभाषा	-11933
▁ब्रिटेन	-11934
▁श्रीमती	-11935
▁उन्होनें	-11936
▁proposals	-11937
▁प्रतिष्ठा	-11938
▁सम्बन्धित	-11939
▁congratulate	-11940
मेट	-11941
▁ढल	-11942
▁kor	-11943
▁घुट	-11944
▁बिछ	-11945
▁मेघ	-11946
▁सिक	-11947
▁peak	-11948
▁शंकर	-11949
संरचना	-11950
▁outer	-11951
▁domain	-11952
▁prasad	-11953
▁स्तरीय	-11954
▁manipur	-11955
▁respite	-11956
▁विदेशों	-11957
▁स्कूलों	-11958
▁स्वचालित	-11959
▁christian	-11960
▁whosoever	-11961
णे	-11962
anka	-11963
▁ren	-11964
▁दाम	-11965
▁नाक	-11966
▁फीस	-11967
antly	-11968
ients	-11969
uddin	-11970
▁1948	-11971
▁font	-11972
▁pond	-11973
▁आबंट	-11974
▁भेजी	-11975
▁lakhs	-11976
▁चेन्न	-11977
▁reader	-11978
▁सेक्टर	-11979
▁regarded	-11980
▁दार्शनिक	-11981
▁स्थितियों	-11982
▁”“	-11983
owing	-11984
▁बर्फ	-11985
सायनिक	-11986
▁crime	-11987
▁delib	-11988
▁निकले	-11989
▁सच्ची	-11990
▁festiv	-11991
▁इंदिरा	-11992
▁कवियों	-11993
▁पहलुओं	-11994
▁पुकारा	-11995
▁वस्तुतः	-11996
▁डेस्कटॉप	-11997
▁admonition	-11998
sl	-11999
vas	-12000
्यूम	-12001
going	-12002
सारिक	-12003
▁mock	-12004
▁thin	-12005
▁आमाल	-12006
▁वन्य	-12007
▁बढ़ता	-12008
वादियों	-12009
▁bamboo	-12010
▁observ	-12011
▁harmony	-12012
▁कार्यरत	-12013
▁argument	-12014
▁educated	-12015
▁व्याख्यान	-12016
11	-12017
▁E	-12018
ola	-12019
wan	-12020
look	-12021
आईटी	-12022
▁इल्	-12023
▁गले	-12024
▁सैन	-12025
icing	-12026
▁गीता	-12027
▁पादप	-12028
▁गाड़ी	-12029
chandra	-12030
▁estate	-12031
▁learnt	-12032
▁व्यर्थ	-12033
▁techniques	-12034
▁टो	-12035
ilal	-12036
life	-12037
लामी	-12038
▁cos	-12039
▁खनिज	-12040
▁plate	-12041
▁डालने	-12042
▁पीड़ा	-12043
▁mandap	-12044
▁summer	-12045
▁package	-12046
▁प्रजाति	-12047
▁highlight	-12048
▁partition	-12049
▁requested	-12050
▁प्रभावशाली	-12051
पद	-12052
हो	-12053
cts	-12054
ran	-12055
▁अने	-12056
पुरुष	-12057
▁अखिल	-12058
▁टीका	-12059
▁मणिप	-12060
▁हिला	-12061
▁accom	-12062
▁तसबीह	-12063
▁पड़ने	-12064
व्यवहार	-12065
▁spoken	-12066
▁vaishn	-12067
▁diverse	-12068
▁herself	-12069
▁आकांक्षा	-12070
▁preferred	-12071
▁sucharita	-12072
▁प्रस्तावित	-12073
’,	-12074
ासा	-12075
विदा	-12076
्यूब	-12077
▁ऑफ़	-12078
▁ताज	-12079
▁बचपन	-12080
▁वापसी	-12081
▁judges	-12082
▁बहादुर	-12083
▁संयोजन	-12084
▁स्वप्न	-12085
▁feeding	-12086
▁passeng	-12087
▁voluntary	-12088
▁दस्तावेजों	-12089
ME	-12090
gy	-12091
lu	-12092
▁X	-12093
ker	-12094
न्तर	-12095
▁अफग	-12096
▁pled	-12097
्योंकि	-12098
▁nodal	-12099
▁अखबार	-12100
▁गर्दन	-12101
▁सोचते	-12102
▁latest	-12103
▁desires	-12104
▁शिक्षित	-12105
▁eligible	-12106
▁addresses	-12107
▁complaint	-12108
▁difficulty	-12109
▁innovative	-12110
▁undertaking	-12111
भुत	-12112
भूषण	-12113
▁bor	-12114
▁lam	-12115
▁club	-12116
▁cord	-12117
▁wear	-12118
▁इच्छ	-12119
▁कबीर	-12120
▁ख़ुद	-12121
▁बालक	-12122
▁arrog	-12123
▁afflic	-12124
▁रचनाओं	-12125
▁वस्तुएं	-12126
▁painting	-12127
▁कहानियों	-12128
▁ज़ालिमों	-12129
▁परंपरागत	-12130
▁specially	-12131
▁प्राधिकार	-12132
▁distributed	-12133
▁representative	-12134
जान	-12135
जाल	-12136
ोपण	-12137
▁7,	-12138
ears	-12139
▁202	-12140
▁los	-12141
▁कंध	-12142
▁वास	-12143
▁ऊंची	-12144
......	-12145
▁कराता	-12146
▁distur	-12147
▁खरीदने	-12148
▁devoted	-12149
▁monthly	-12150
▁terminal	-12151
▁carefully	-12152
.02	-12153
बाल	-12154
▁भव	-12155
खाने	-12156
तिपय	-12157
पक्व	-12158
▁ada	-12159
▁cas	-12160
▁नकद	-12161
▁फूँ	-12162
tical	-12163
▁अंशदान	-12164
▁सांसारिक	-12165
▁tremendous	-12166
▁8,	-12167
abet	-12168
iver	-12169
room	-12170
▁धान	-12171
▁जरुर	-12172
▁सूरज	-12173
▁cycle	-12174
▁sheet	-12175
▁fabric	-12176
▁बादशाह	-12177
▁मुकदमा	-12178
▁चाहूंगा	-12179
▁hundreds	-12180
▁prostrate	-12181
chi	-12182
कती	-12183
ouds	-12184
शोधन	-12185
▁क़ि	-12186
▁मातृ	-12187
▁मोटर	-12188
ानुसार	-12189
▁fifth	-12190
▁सूचित	-12191
श्रेष्ठ	-12192
▁strategic	-12193
▁accordingly	-12194
आत	-12195
oon	-12196
▁tir	-12197
anges	-12198
▁लगने	-12199
indeed	-12200
्रेडिट	-12201
▁nodes	-12202
▁asking	-12203
▁wrongdo	-12204
▁guarantee	-12205
▁contributed	-12206
hn	-12207
मंच	-12208
▁09	-12209
wing	-12210
त्रि	-12211
▁आधा	-12212
▁कॉल	-12213
▁सेल	-12214
aking	-12215
▁acce	-12216
▁diam	-12217
▁उदास	-12218
▁ज़ोर	-12219
▁जिसपर	-12220
▁strict	-12221
▁clothes	-12222
▁studied	-12223
▁स्वीकृत	-12224
▁recognized	-12225
▁१५	-12226
oram	-12227
द्दी	-12228
▁fix	-12229
▁आदर	-12230
▁डिप	-12231
स्टिक	-12232
▁रहित	-12233
▁वैसा	-12234
▁ahmed	-12235
▁alarm	-12236
▁टेलीफ	-12237
▁बनाती	-12238
▁अधिकरण	-12239
▁स्मारक	-12240
▁derived	-12241
▁मांसपेश	-12242
▁स्रोतों	-12243
▁abnormal	-12244
▁tourists	-12245
▁happening	-12246
▁combination	-12247
75	-12248
god	-12249
hat	-12250
पंथ	-12251
पेट	-12252
मलव	-12253
रार	-12254
शित	-12255
शोथ	-12256
▁ok	-12257
▁सल	-12258
aran	-12259
gged	-12260
▁ओपन	-12261
▁फ्र	-12262
▁वसा	-12263
eries	-12264
▁bliss	-12265
▁route	-12266
▁पढ़ाई	-12267
▁साक्षी	-12268
▁counsel	-12269
▁परिपक्व	-12270
▁answered	-12271
pay	-12272
tic	-12273
ट्स	-12274
्टे	-12275
पीसी	-12276
▁400	-12277
▁gaz	-12278
▁पंख	-12279
▁होम	-12280
▁monu	-12281
▁गयीं	-12282
▁आंखों	-12283
▁कतिपय	-12284
▁दीजिए	-12285
क्रिप्ट	-12286
▁circle	-12287
▁poetic	-12288
▁render	-12289
▁ज्ञापन	-12290
▁परेशान	-12291
▁हाज़िर	-12292
▁closely	-12293
▁missing	-12294
▁realize	-12295
▁सदस्यता	-12296
▁increases	-12297
▁प्रोटोकॉल	-12298
▁encouraged	-12299
mer	-12300
rier	-12301
ब्रे	-12302
प्रथम	-12303
▁mahal	-12304
▁जंगली	-12305
▁पुरूष	-12306
▁arabic	-12307
▁पूर्वा	-12308
▁faculty	-12309
▁profits	-12310
▁आधारभूत	-12311
▁interpret	-12312
IN	-12313
संघ	-12314
▁(6	-12315
▁नल	-12316
agra	-12317
garh	-12318
अच्छा	-12319
्यूशन	-12320
▁beat	-12321
▁gland	-12322
▁membr	-12323
▁त्योह	-12324
▁लगाते	-12325
▁लौटने	-12326
▁advent	-12327
▁carved	-12328
▁directors	-12329
▁कम्प्यूटर	-12330
▁डो	-12331
unch	-12332
प्रण	-12333
▁tube	-12334
▁परिक	-12335
▁मोटे	-12336
▁emper	-12337
▁टेनिस	-12338
▁लगाकर	-12339
utation	-12340
▁caught	-12341
▁preced	-12342
▁winter	-12343
▁खतरनाक	-12344
▁डाक्टर	-12345
▁निपटान	-12346
▁descend	-12347
▁fertiliz	-12348
▁केंद्रों	-12349
▁ज़िन्दगी	-12350
▁पर्यटकों	-12351
दूत	-12352
नियम	-12353
लेखन	-12354
िकीय	-12355
▁anc	-12356
▁उदय	-12357
▁भूत	-12358
▁मचा	-12359
▁लिप	-12360
bered	-12361
्रेता	-12362
▁गलती	-12363
▁बंबई	-12364
कारिता	-12365
▁stake	-12366
▁dreams	-12367
▁helper	-12368
▁इलाकों	-12369
▁बारगाह	-12370
▁सच्चाई	-12371
▁valuable	-12372
▁participate	-12373
-9	-12374
▁पन	-12375
▁बत	-12376
ंटों	-12377
ुमान	-12378
▁dog	-12379
▁ढाँ	-12380
▁lake	-12381
▁silk	-12382
▁sita	-12383
▁झगड़	-12384
▁बचने	-12385
▁allot	-12386
▁मेहनत	-12387
▁convin	-12388
▁filter	-12389
▁awarded	-12390
▁bestowed	-12391
▁ज्यादातर	-12392
▁प्रणालियों	-12393
▁लोकतांत्रिक	-12394
39	-12395
काव	-12396
्वे	-12397
नहीं	-12398
▁encl	-12399
▁अजीब	-12400
▁याता	-12401
▁वाणी	-12402
▁quiet	-12403
▁vedas	-12404
▁दशमलव	-12405
▁माहौल	-12406
त्रियों	-12407
▁warned	-12408
▁वैष्णव	-12409
▁व्यस्त	-12410
▁सम्राट	-12411
▁eternal	-12412
▁शास्त्रीय	-12413
▁requirement	-12414
)!	-12415
bur	-12416
ogen	-12417
मानत	-12418
▁pig	-12419
▁काश	-12420
eches	-12421
▁onto	-12422
▁vary	-12423
▁नेकी	-12424
▁ऑडियो	-12425
inating	-12426
▁devote	-12427
▁stress	-12428
▁निवासी	-12429
▁मानदंड	-12430
▁pointed	-12431
▁resolve	-12432
▁सैनिकों	-12433
▁स्वाधीन	-12434
▁incorpor	-12435
▁लक्ष्यों	-12436
▁societies	-12437
▁enterprises	-12438
बै	-12439
mal	-12440
बीन	-12441
▁04	-12442
▁kn	-12443
▁lev	-12444
▁मेह	-12445
▁समू	-12446
.2012	-12447
orter	-12448
▁camel	-12449
▁हटाने	-12450
▁factory	-12451
▁selling	-12452
▁identify	-12453
▁समुदायों	-12454
▁अंग्रेज़ी	-12455
zz	-12456
कन	-12457
्रु	-12458
▁ढेर	-12459
▁सचि	-12460
▁mira	-12461
▁shiv	-12462
▁सीडी	-12463
▁filed	-12464
▁kings	-12465
▁spite	-12466
▁सम्भव	-12467
▁nobody	-12468
▁टुकड़ा	-12469
▁consolid	-12470
▁familiar	-12471
▁controlled	-12472
▁technological	-12473
mn	-12474
कंप	-12475
▁टू	-12476
▁‘‘	-12477
ager	-12478
वश्य	-12479
▁आधे	-12480
▁वसू	-12481
शिक्ष	-12482
▁बनवा	-12483
▁बेटी	-12484
▁brows	-12485
▁glass	-12486
▁older	-12487
▁twice	-12488
▁advert	-12489
▁paramet	-12490
▁sharing	-12491
▁कोविन्द	-12492
▁साक्ष्य	-12493
▁परिस्थिति	-12494
▁विज्ञप्ति	-12495
▁transferred	-12496
sa	-12497
बूर	-12498
▁ary	-12499
▁किल	-12500
शुल्क	-12501
▁पीछा	-12502
▁forum	-12503
▁recite	-12504
▁strive	-12505
▁आकर्षक	-12506
▁नवम्बर	-12507
▁मानकों	-12508
▁रखरखाव	-12509
▁apparent	-12510
▁inserted	-12511
▁printing	-12512
15	-12513
गीय	-12514
▁घन	-12515
▁खिस	-12516
atics	-12517
सम्बर	-12518
▁कुर्	-12519
terday	-12520
▁photo	-12521
▁remov	-12522
▁stuff	-12523
▁इमारत	-12524
▁पेशेवर	-12525
▁बाग़ों	-12526
▁accompl	-12527
▁evident	-12528
▁venture	-12529
▁यातायात	-12530
▁सलाहकार	-12531
▁विकासशील	-12532
▁receiving	-12533
▁प्रजातियों	-12534
70	-12535
ेस	-12536
ोद	-12537
nan	-12538
पाई	-12539
▁oxy	-12540
▁peas	-12541
▁आपदा	-12542
▁ज़रा	-12543
▁aside	-12544
▁cried	-12545
▁तीसरी	-12546
▁fulfil	-12547
▁चीज़ें	-12548
▁inspect	-12549
▁सौंदर्य	-12550
▁निवेशकों	-12551
▁रासायनिक	-12552
▁childhood	-12553
▁introduction	-12554
”,	-12555
aly	-12556
off	-12557
समा	-12558
ोटे	-12559
ibly	-12560
णुओं	-12561
▁nur	-12562
▁इंस	-12563
▁घाट	-12564
▁बलि	-12565
▁बेट	-12566
▁सूच	-12567
संचार	-12568
▁जुटा	-12569
▁पृथक	-12570
▁ब्राउ	-12571
▁रूपये	-12572
▁struck	-12573
▁phenomen	-12574
▁programs	-12575
▁प्रतिवादी	-12576
▁discipline	-12577
▁instruction	-12578
याल	-12579
aded	-12580
asty	-12581
▁kde	-12582
▁खाल	-12583
▁झुक	-12584
▁दीं	-12585
▁मील	-12586
▁flour	-12587
▁surre	-12588
▁फ़रमा	-12589
▁संकलन	-12590
▁theirs	-12591
▁गारंटी	-12592
▁sinners	-12593
▁अनुपालन	-12594
▁चिह्नित	-12595
▁criticism	-12596
33	-12597
कै	-12598
मेन	-12599
▁taj	-12600
▁नाइ	-12601
▁नाप	-12602
▁शर्त	-12603
iciary	-12604
orders	-12605
▁repay	-12606
▁मराठी	-12607
▁हरिया	-12608
isition	-12609
▁bigger	-12610
▁incent	-12611
▁madras	-12612
▁poison	-12613
▁पत्रों	-12614
▁रिश्ते	-12615
▁finding	-12616
▁भावनाओं	-12617
▁समकालीन	-12618
▁assessee	-12619
▁proclaim	-12620
▁डिफ़ॉल्ट	-12621
▁fulfilled	-12622
▁yesterday	-12623
डो	-12624
▁~	-12625
शास	-12626
बूती	-12627
्रीम	-12628
▁अद्	-12629
▁गेह	-12630
▁mart	-12631
▁कोने	-12632
▁दुश्	-12633
▁सन्द	-12634
व्यापी	-12635
▁oblig	-12636
▁revol	-12637
▁कामया	-12638
दायित्व	-12639
▁french	-12640
▁प्राणी	-12641
▁paralle	-12642
▁मिश्रित	-12643
▁संस्थापित	-12644
▁connectivity	-12645
▁05	-12646
▁42	-12647
fast	-12648
gent	-12649
▁mov	-12650
▁pup	-12651
▁inqu	-12652
▁आयकर	-12653
▁नामा	-12654
▁विवेक	-12655
▁artist	-12656
▁illness	-12657
▁ईमानदार	-12658
▁कानूनों	-12659
▁क्रेडिट	-12660
▁अध्यक्षता	-12661
▁राष्ट्रों	-12662
AR	-12663
िफ़	-12664
ोष्ठ	-12665
▁kav	-12666
▁घात	-12667
▁तरा	-12668
▁प्य	-12669
▁सोल	-12670
▁ring	-12671
▁rose	-12672
▁curse	-12673
▁swear	-12674
▁कोयला	-12675
▁कोर्ट	-12676
▁श्वेत	-12677
▁स्टेट	-12678
▁minute	-12679
▁signal	-12680
▁extract	-12681
▁speeches	-12682
▁संकल्पना	-12683
▁pertaining	-12684
▁निर्धारिती	-12685
▁प्रशिक्षित	-12686
▁alternative	-12687
▁प्रतिबद्धता	-12688
▁respectively	-12689
हट	-12690
डीई	-12691
lock	-12692
▁tun	-12693
▁via	-12694
▁लिपि	-12695
▁goals	-12696
▁toward	-12697
▁रंगमंच	-12698
▁diction	-12699
▁involve	-12700
▁जरूरतों	-12701
▁टेलीफोन	-12702
▁wherever	-12703
▁regularly	-12704
▁indigenous	-12705
▁translated	-12706
अत	-12707
राय	-12708
हाल	-12709
▁az	-12710
agers	-12711
द्रास	-12712
▁दाख़	-12713
▁पैरा	-12714
▁बिगा	-12715
▁मोहन	-12716
▁रहीं	-12717
▁सांप	-12718
त्मकता	-12719
▁forty	-12720
▁perce	-12721
▁prosp	-12722
▁organs	-12723
▁जोड़ें	-12724
▁डॉक्टर	-12725
▁emerged	-12726
▁exception	-12727
▁paintings	-12728
▁varieties	-12729
ष्म	-12730
▁लाह	-12731
ालयों	-12732
क्षरता	-12733
▁roots	-12734
▁सहारा	-12735
▁acting	-12736
▁closer	-12737
▁clouds	-12738
▁finger	-12739
▁negoti	-12740
▁फ्रांस	-12741
▁organic	-12742
▁earliest	-12743
▁राजकुमार	-12744
▁स्वच्छता	-12745
▁enterprise	-12746
▁उत्कृष्टता	-12747
०००	-12748
ache	-12749
सूची	-12750
▁fly	-12751
▁दिश	-12752
▁धूम	-12753
icent	-12754
▁fasc	-12755
▁indo	-12756
▁अड्ड	-12757
▁नोडल	-12758
▁पैनल	-12759
▁भीड़	-12760
▁मोती	-12761
lihood	-12762
▁enact	-12763
▁बताने	-12764
▁शेयरों	-12765
▁दिलचस्प	-12766
▁pictures	-12767
▁recommendations	-12768
)-	-12769
गुण	-12770
डिंग	-12771
बहुत	-12772
म्मा	-12773
▁dawn	-12774
▁subh	-12775
▁verse	-12776
▁लम्बे	-12777
▁सोचने	-12778
entions	-12779
▁तथ्यों	-12780
nic	-12781
oes	-12782
oli	-12783
pet	-12784
ayas	-12785
cket	-12786
odes	-12787
हरों	-12788
▁धूप	-12789
▁माय	-12790
tched	-12791
▁kann	-12792
▁चलना	-12793
स्मृति	-12794
▁petro	-12795
▁खातों	-12796
▁समझना	-12797
▁वांछित	-12798
▁liberal	-12799
▁अधिवेशन	-12800
▁प्रवासी	-12801
▁लानेवालो	-12802
▁converted	-12803
▁legislation	-12804
onal	-12805
ब्बे	-12806
▁कंट	-12807
▁जगत	-12808
▁पोत	-12809
▁मस्	-12810
▁busy	-12811
▁math	-12812
erated	-12813
▁width	-12814
▁losers	-12815
▁overse	-12816
▁गरीबों	-12817
▁जर्मनी	-12818
▁झिल्ली	-12819
▁punjabi	-12820
▁कविताओं	-12821
▁दीवारों	-12822
▁disabled	-12823
▁फ़रिश्तों	-12824
▁livelihood	-12825
▁compassionate	-12826
▁̄	-12827
bra	-12828
▁*.	-12829
▁44	-12830
▁ड़	-12831
aked	-12832
किसी	-12833
▁vic	-12834
▁चश्	-12835
▁विधा	-12836
▁हटकर	-12837
▁favor	-12838
▁खोजने	-12839
▁घोड़े	-12840
▁भेजें	-12841
ष्टाचार	-12842
▁एजेंसी	-12843
▁observe	-12844
▁arrested	-12845
▁colleges	-12846
▁maharaja	-12847
▁reaction	-12848
▁consumers	-12849
▁qualities	-12850
▁influenced	-12851
▁commodities	-12852
्ति	-12853
गोरि	-12854
▁cup	-12855
▁din	-12856
▁dyn	-12857
▁ray	-12858
▁अमर	-12859
▁नेक	-12860
orous	-12861
▁1987	-12862
▁गोवा	-12863
▁indira	-12864
▁liability	-12865
▁discovered	-12866
▁newspapers	-12867
है	-12868
mph	-12869
बाई	-12870
िन्त	-12871
▁मला	-12872
▁narr	-12873
▁लंदन	-12874
ब्ल्यू	-12875
▁ended	-12876
▁fault	-12877
▁सुनकर	-12878
▁driver	-12879
▁eating	-12880
▁sovere	-12881
▁दाख़िल	-12882
ानिस्तान	-12883
▁founded	-12884
▁managed	-12885
▁contacts	-12886
▁hinduism	-12887
▁discharge	-12888
▁artificial	-12889
lla	-12890
oom	-12891
श्‍	-12892
त्सव	-12893
स्टी	-12894
▁अटल	-12895
▁पडे	-12896
▁बढा	-12897
▁मत्	-12898
ighty	-12899
▁axis	-12900
▁doom	-12901
▁mine	-12902
▁nose	-12903
▁broke	-12904
▁गवाही	-12905
▁टैगोर	-12906
▁प्रबल	-12907
▁resort	-12908
▁slowly	-12909
▁मद्रास	-12910
▁सड़कों	-12911
▁horizon	-12912
▁pillars	-12913
▁पुरुषों	-12914
▁premises	-12915
▁stations	-12916
▁कार्यान्वित	-12917
""	-12918
zy	-12919
लें	-12920
▁38	-12921
▁फट	-12922
long	-12923
▁nab	-12924
▁आवेद	-12925
▁औषधि	-12926
▁faced	-12927
▁kabir	-12928
▁ships	-12929
▁सालों	-12930
▁driven	-12931
▁easier	-12932
▁eminent	-12933
▁kilomet	-12934
▁दर्शाया	-12935
▁sciences	-12936
▁प्रकाशना	-12937
▁समस्याएं	-12938
▁वास्तविकता	-12939
▁cooperative	-12940
▁inflammation	-12941
nai	-12942
्रेम	-12943
▁600	-12944
▁goa	-12945
▁tex	-12946
▁डरो	-12947
▁मरी	-12948
peace	-12949
हाबाद	-12950
▁कैसी	-12951
▁मुसी	-12952
▁अधिकृत	-12953
▁परोक्ष	-12954
▁degrees	-12955
▁marathi	-12956
▁publish	-12957
▁duration	-12958
▁affection	-12959
-5	-12960
खार	-12961
शोर	-12962
िट्	-12963
▁नमक	-12964
▁keen	-12965
▁आएगी	-12966
▁ऊंचे	-12967
▁नौकर	-12968
▁बाएं	-12969
▁याची	-12970
▁संगत	-12971
▁हमला	-12972
▁aspir	-12973
▁chest	-12974
▁noise	-12975
▁uncle	-12976
▁पैरों	-12977
▁शान्त	-12978
▁सोचता	-12979
त्तियों	-12980
▁सम्पन्न	-12981
▁पक्षियों	-12982
▁experiment	-12983
▁07	-12984
time	-12985
▁(4)	-12986
▁घुस	-12987
▁डूब	-12988
▁हरा	-12989
▁fate	-12990
कल्पिक	-12991
▁rhyth	-12992
▁sheep	-12993
▁सैन्य	-12994
ानुभूति	-12995
▁chrome	-12996
▁rebell	-12997
▁dynamic	-12998
▁specify	-12999
▁इंग्लैंड	-13000
▁उत्पादकता	-13001
▁सर्वश्रेष्ठ	-13002
▁प्रतिस्पर्धा	-13003
ारक	-13004
▁err	-13005
▁jam	-13006
▁ltd	-13007
▁unp	-13008
▁नाश	-13009
▁बहि	-13010
▁inev	-13011
▁औलाद	-13012
▁पाना	-13013
▁बेहद	-13014
▁delic	-13015
▁ruler	-13016
▁novels	-13017
▁चित्रण	-13018
▁bacteria	-13019
▁faithful	-13020
▁overcome	-13021
▁suffered	-13022
राष्ट्रपति	-13023
▁respondent	-13024
▁satisfaction	-13025
fe	-13026
box	-13027
iri	-13028
्ता	-13029
uman	-13030
प्रा	-13031
▁govt	-13032
▁symp	-13033
▁तनाव	-13034
▁दलों	-13035
▁फलों	-13036
▁बांस	-13037
▁बेटा	-13038
▁होटल	-13039
▁प्राप	-13040
▁मक्का	-13041
▁सृजित	-13042
▁carbon	-13043
▁claims	-13044
▁दूरस्थ	-13045
▁सहयोगी	-13046
▁virtual	-13047
▁पूर्णतः	-13048
▁channels	-13049
▁fragment	-13050
▁प्रमाणित	-13051
▁festivals	-13052
▁scripture	-13053
▁उपलब्धियों	-13054
विंद	-13055
▁आइए	-13056
▁पते	-13057
erred	-13058
ships	-13059
विचार	-13060
▁सकने	-13061
ixture	-13062
▁conve	-13063
▁discl	-13064
▁hyper	-13065
▁अंगों	-13066
▁वसूली	-13067
▁सुनाई	-13068
▁humans	-13069
▁ideals	-13070
▁इस्पात	-13071
▁जीवाणु	-13072
▁बढ़ाना	-13073
तापूर्वक	-13074
▁ayurveda	-13075
▁glorious	-13076
▁reaching	-13077
▁emergency	-13078
▁विचारधारा	-13079
▁legislature	-13080
जक	-13081
टाम	-13082
▁थै	-13083
aras	-13084
▁छेद	-13085
▁छोर	-13086
▁लाई	-13087
▁bure	-13088
▁sund	-13089
▁कोरो	-13090
▁पाठक	-13091
▁cheap	-13092
▁tasks	-13093
▁रोशनी	-13094
▁नवाचार	-13095
▁पड़ोसी	-13096
▁प्रातः	-13097
▁समर्पण	-13098
▁enemies	-13099
▁neglect	-13100
▁raising	-13101
▁disputes	-13102
▁broadcast	-13103
▁operational	-13104
फ़ि	-13105
चेंज	-13106
▁kap	-13107
▁खाओ	-13108
काव्य	-13109
▁1991	-13110
▁champ	-13111
▁नाट्य	-13112
▁छुट्टी	-13113
▁प्रतिर	-13114
▁उपेक्षा	-13115
▁opposite	-13116
▁depending	-13117
▁acceptance	-13118
▁मैत्रीपूर्ण	-13119
8)	-13120
तू	-13121
ima	-13122
किस	-13123
देवी	-13124
▁असी	-13125
ानिर्	-13126
▁1996	-13127
▁drow	-13128
▁ears	-13129
▁fash	-13130
▁बाढ़	-13131
▁beach	-13132
▁आस्था	-13133
▁उठाना	-13134
▁कामों	-13135
▁उच्चतर	-13136
▁नाटकों	-13137
▁chromos	-13138
▁emperor	-13139
▁अनुग्रह	-13140
▁क़ियामत	-13141
▁पासवर्ड	-13142
▁फ़ाइलों	-13143
▁ब्रह्मा	-13144
▁संवेदना	-13145
▁अपराधियों	-13146
▁healthcare	-13147
▁regulation	-13148
1)	-13149
tr	-13150
▁O	-13151
महल	-13152
ल्‍	-13153
▁ll	-13154
araj	-13155
part	-13156
▁kne	-13157
▁mix	-13158
inals	-13159
पोर्ट	-13160
▁musa	-13161
▁sang	-13162
▁ऊंचा	-13163
▁द्रव	-13164
erable	-13165
▁conqu	-13166
▁honor	-13167
▁manus	-13168
▁stamp	-13169
▁नमूने	-13170
▁निभाई	-13171
▁salary	-13172
▁talent	-13173
▁अकादमी	-13174
▁calling	-13175
▁पेट्रोल	-13176
▁fighting	-13177
▁newspaper	-13178
▁protected	-13179
▁reckoning	-13180
▁सुभाषबाबू	-13181
▁experiences	-13182
▁installation	-13183
ork	-13184
pes	-13185
बिल	-13186
▁आल	-13187
▁रिट	-13188
▁bhak	-13189
▁अक्ट	-13190
▁अपार	-13191
▁पकड़े	-13192
▁darkness	-13193
▁वर्गीकरण	-13194
▁execution	-13195
▁कार्यालयों	-13196
▁constitutional	-13197
uv	-13198
कने	-13199
▁(0	-13200
▁इम	-13201
▁तुझ	-13202
moses	-13203
क्तिक	-13204
▁1995	-13205
▁impr	-13206
▁नायक	-13207
▁समेक	-13208
ulates	-13209
▁admit	-13210
▁guess	-13211
▁larva	-13212
▁जाहिर	-13213
▁समापन	-13214
▁wooden	-13215
▁त्वरित	-13216
▁शुरूआत	-13217
▁removal	-13218
▁कार्यकारी	-13219
bab	-13220
डों	-13221
othe	-13222
देशक	-13223
▁rav	-13224
जहन्न	-13225
▁तेरा	-13226
▁नींव	-13227
▁lanka	-13228
▁wings	-13229
▁सीआरए	-13230
▁किराये	-13231
▁पहुँची	-13232
▁मरम्मत	-13233
▁passage	-13234
▁obviously	-13235
▁inaugurated	-13236
▁representation	-13237
uru	-13238
वीर	-13239
▁ip	-13240
▁चट	-13241
▁आवि	-13242
▁महो	-13243
ommod	-13244
▁proc	-13245
▁urge	-13246
▁analy	-13247
▁falls	-13248
▁nagar	-13249
▁चेहरा	-13250
▁बनायी	-13251
▁declar	-13252
▁sincere	-13253
▁मित्रता	-13254
▁grateful	-13255
▁literacy	-13256
▁झुठलाओगे	-13257
▁afghanistan	-13258
▁determination	-13259
lex	-13260
ंचल	-13261
▁शह	-13262
लैंड	-13263
▁आशय	-13264
arest	-13265
being	-13266
inite	-13267
uting	-13268
▁flex	-13269
▁stim	-13270
▁सब्ज	-13271
▁स्वि	-13272
▁secre	-13273
▁अवरोध	-13274
▁तारों	-13275
▁बेकार	-13276
▁forgot	-13277
▁plugin	-13278
▁खुल्लम	-13279
▁वाक़िफ	-13280
▁lecture	-13281
▁rapidly	-13282
▁अनुसूची	-13283
▁distress	-13284
▁emerging	-13285
▁constantly	-13286
▁effectively	-13287
ौरन	-13288
▁uk	-13289
husi	-13290
ules	-13291
बाही	-13292
▁isn	-13293
▁बहन	-13294
organ	-13295
चंद्र	-13296
▁bhut	-13297
▁prox	-13298
▁आगरा	-13299
▁सफाई	-13300
फ्रेंस	-13301
▁nanak	-13302
▁sharp	-13303
▁उपहार	-13304
▁कीटना	-13305
▁interf	-13306
▁update	-13307
▁doctors	-13308
▁accommod	-13309
▁almighty	-13310
▁historic	-13311
▁moreover	-13312
▁everywhere	-13313
arh	-13314
मूल	-13315
वत्	-13316
▁गि	-13317
▁lawy	-13318
▁seats	-13319
▁tiger	-13320
▁बताते	-13321
▁pretty	-13322
▁आंकड़े	-13323
▁आउटपुट	-13324
▁प्रचालन	-13325
▁returning	-13326
rum	-13327
▁sr	-13328
amin	-13329
▁संभ	-13330
दाबाद	-13331
▁amid	-13332
▁pupp	-13333
▁vive	-13334
▁शाही	-13335
▁decre	-13336
▁motor	-13337
▁elabor	-13338
▁sorrow	-13339
▁निवारण	-13340
▁enthusi	-13341
▁largely	-13342
▁एकत्रित	-13343
▁दर्दनाक	-13344
▁मध्यस्थ	-13345
▁involves	-13346
▁parallel	-13347
▁superior	-13348
▁साझेदारी	-13349
▁श्रद्धांजलि	-13350
ंर	-13351
ror	-13352
ज़न	-13353
▁नम	-13354
▁avo	-13355
▁wed	-13356
▁पान	-13357
▁पोल	-13358
eless	-13359
iable	-13360
प्राय	-13361
▁hari	-13362
▁खोला	-13363
▁गर्इ	-13364
▁रिज़	-13365
▁रेगि	-13366
▁शरीक	-13367
स्ट्रे	-13368
▁bonds	-13369
▁गाँधी	-13370
▁निकला	-13371
▁भत्ता	-13372
▁handic	-13373
▁injury	-13374
▁shrine	-13375
▁ग्रन्थ	-13376
▁स्थलों	-13377
▁संतुष्ट	-13378
डल	-13379
▁aj	-13380
▁ga	-13381
▁kol	-13382
▁vij	-13383
▁जरा	-13384
▁संब	-13385
▁1992	-13386
▁रेशम	-13387
आर्थिक	-13388
▁wages	-13389
▁worst	-13390
▁पूछता	-13391
▁condem	-13392
▁intest	-13393
▁अहिंसा	-13394
▁नारायण	-13395
iculture	-13396
▁damaged	-13397
▁germany	-13398
▁अनुक्रम	-13399
▁निशानियों	-13400
▁innovations	-13401
▁transformation	-13402
▁W	-13403
▁ष	-13404
ikh	-13405
ग्न	-13406
▁cp	-13407
itud	-13408
्रोत	-13409
▁deaf	-13410
▁elim	-13411
▁synt	-13412
▁tall	-13413
▁किमी	-13414
▁ट्रा	-13415
▁त्रि	-13416
▁divid	-13417
▁कारगर	-13418
▁बदलना	-13419
▁स्वाद	-13420
▁हड्डी	-13421
▁wicked	-13422
▁राजाओं	-13423
▁profile	-13424
▁singing	-13425
▁audience	-13426
▁प्रवाहित	-13427
▁वैकल्पिक	-13428
▁generated	-13429
▁succeeded	-13430
▁percentage	-13431
▁withdrawal	-13432
▁mahabharata	-13433
▁हिन्दुस्तान	-13434
dis	-13435
vis	-13436
▁dw	-13437
▁gt	-13438
▁नृ	-13439
▁लड	-13440
▁anx	-13441
▁माध	-13442
▁सिं	-13443
▁hast	-13444
▁pace	-13445
▁span	-13446
▁घबरा	-13447
▁नर्स	-13448
▁प्या	-13449
▁रोचक	-13450
▁games	-13451
▁उतारा	-13452
▁तबाही	-13453
▁oxygen	-13454
▁causing	-13455
▁vehicle	-13456
▁walking	-13457
▁feelings	-13458
▁gracious	-13459
▁investig	-13460
▁integration	-13461
,–	-13462
usp	-13463
पर्य	-13464
▁देन	-13465
▁1990	-13466
▁lady	-13467
▁आवरण	-13468
▁उग्र	-13469
▁asian	-13470
▁elder	-13471
▁magaz	-13472
▁mohan	-13473
raction	-13474
▁worksh	-13475
▁कोरोना	-13476
▁careful	-13477
▁fashion	-13478
▁दिसम्बर	-13479
▁intended	-13480
▁pregnancy	-13481
▁definition	-13482
▁क्रांतिकारी	-13483
▁उत्तरदायित्व	-13484
▁entrepreneurs	-13485
▁,	-13486
क़ल	-13487
▁kg	-13488
स्पी	-13489
▁nas	-13490
▁घोष	-13491
▁साँ	-13492
craft	-13493
inese	-13494
ख़बरी	-13495
वश्यक	-13496
▁बारह	-13497
क़ुरान	-13498
ढ़ियों	-13499
▁adopt	-13500
▁immun	-13501
▁अवकाश	-13502
▁आश्रम	-13503
▁बहुते	-13504
▁bureau	-13505
▁smooth	-13506
▁आनुवंश	-13507
▁नेताजी	-13508
▁यात्री	-13509
▁वितरित	-13510
▁एल्गोरि	-13511
▁झुठलाते	-13512
▁महामारी	-13513
▁overseas	-13514
▁produces	-13515
▁विज्ञापन	-13516
▁witnessed	-13517
▁ultimately	-13518
▁institutional	-13519
dp	-13520
क्ल	-13521
▁चक	-13522
शंकर	-13523
▁hab	-13524
▁अवल	-13525
▁बेर	-13526
िल्ला	-13527
▁sank	-13528
▁gains	-13529
▁russia	-13530
▁फ़ॉन्ट	-13531
▁decimal	-13532
▁deities	-13533
▁helping	-13534
▁uniform	-13535
▁आंबेडकर	-13536
▁नरेन्द्र	-13537
▁permitted	-13538
▁एजेंसियों	-13539
▁completion	-13540
▁परियोजनाएं	-13541
▁progressive	-13542
▁collaboration	-13543
ugu	-13544
बूझ	-13545
भाई	-13546
▁तप	-13547
मिया	-13548
मुझे	-13549
ष्‍ट	-13550
▁नाय	-13551
▁पुल	-13552
▁ह्र	-13553
▁bell	-13554
▁बगैर	-13555
▁cater	-13556
▁cheque	-13557
▁decade	-13558
▁lesson	-13559
▁thamud	-13560
▁welcom	-13561
▁अभिन्न	-13562
▁dignity	-13563
▁pilgrim	-13564
▁savings	-13565
▁determine	-13566
▁entrusted	-13567
▁सहानुभूति	-13568
▁बांग्लादेश	-13569
rid	-13570
aved	-13571
पोरेट	-13572
ब्रेरी	-13573
▁aband	-13574
▁bread	-13575
▁अवशेष	-13576
▁स्ट्र	-13577
▁अन्तिम	-13578
▁कारबार	-13579
▁oriented	-13580
▁realised	-13581
▁काफ़िरों	-13582
▁directions	-13583
▁empowerment	-13584
ऍं	-13585
घन	-13586
olic	-13587
rome	-13588
िकरण	-13589
▁orn	-13590
▁भटक	-13591
igned	-13592
▁rand	-13593
▁ungr	-13594
▁धीमी	-13595
स्ट्री	-13596
▁shock	-13597
▁स्पर्श	-13598
▁निरूपित	-13599
▁equation	-13600
▁प्रयोक्ता	-13601
▁reasonable	-13602
rad	-13603
रीन	-13604
लिये	-13605
▁adj	-13606
▁यूँ	-13607
▁लखन	-13608
▁शब्	-13609
isted	-13610
▁thro	-13611
▁राधा	-13612
▁auton	-13613
▁envis	-13614
▁गीतों	-13615
▁मस्जि	-13616
▁चौड़ाई	-13617
▁सम्बंध	-13618
▁ordered	-13619
▁अक्टूबर	-13620
▁anywhere	-13621
▁procedures	-13622
अब	-13623
500	-13624
▁:-	-13625
सेवा	-13626
▁lod	-13627
▁nit	-13628
▁tow	-13629
▁मुश	-13630
क़्ति	-13631
हमारे	-13632
▁क़ाय	-13633
▁midst	-13634
▁बेचने	-13635
▁शासित	-13636
▁belied	-13637
▁restra	-13638
▁worthy	-13639
▁इसराईल	-13640
▁दिखाते	-13641
▁परजीवी	-13642
▁मणिपुर	-13643
▁chamber	-13644
▁chennai	-13645
▁readers	-13646
▁मजदूरों	-13647
▁संग्राम	-13648
▁indirect	-13649
▁दिशानिर्	-13650
▁publications	-13651
ओएस	-13652
▁dv	-13653
▁pi	-13654
▁ऋतु	-13655
▁कोर	-13656
▁libr	-13657
▁नानक	-13658
क्टरों	-13659
स्परिक	-13660
▁cards	-13661
▁उत्पा	-13662
▁ऊतकों	-13663
▁client	-13664
▁ज़िक्र	-13665
▁कार्मिक	-13666
▁मुकाबले	-13667
▁रजिस्टर	-13668
▁रूपरेखा	-13669
▁श्रद्धा	-13670
▁संगोष्ठ	-13671
▁assuredly	-13672
▁प्रतिवर्ष	-13673
▁competitive	-13674
▁substantial	-13675
▁स्थानांतरित	-13676
ju	-13677
क़त	-13678
पहर	-13679
▁भट	-13680
ख्ते	-13681
▁बिग	-13682
▁लान	-13683
inter	-13684
▁isol	-13685
▁ling	-13686
▁stup	-13687
▁कर्ज	-13688
▁ग्रे	-13689
akrish	-13690
dation	-13691
▁brown	-13692
▁pious	-13693
▁ट्रेड	-13694
▁faster	-13695
▁plaint	-13696
▁prompt	-13697
▁तालिका	-13698
▁मधुमेह	-13699
▁boiling	-13700
▁बंदरगाह	-13701
▁मुहम्मद	-13702
▁dramatic	-13703
▁finished	-13704
▁फ़रिश्ते	-13705
▁presently	-13706
ताप	-13707
दनी	-13708
▁cm	-13709
isha	-13710
▁ble	-13711
▁cav	-13712
संख्य	-13713
होंने	-13714
▁seat	-13715
▁उत्‍	-13716
▁हलाक	-13717
▁anand	-13718
▁काफिर	-13719
▁मतदान	-13720
▁thread	-13721
▁स्टार्ट	-13722
▁announce	-13723
▁photograph	-13724
▁prevention	-13725
▁electronics	-13726
▁interaction	-13727
’’	-13728
':%	-13729
टीय	-13730
▁lif	-13731
▁रस्	-13732
▁atom	-13733
▁bull	-13734
▁gita	-13735
▁grat	-13736
▁इनको	-13737
▁सुगम	-13738
यात्रा	-13739
▁बोलने	-13740
▁वारिस	-13741
▁firmly	-13742
▁forced	-13743
▁ग्रस्त	-13744
▁सर्विस	-13745
▁telling	-13746
▁कूटशब्द	-13747
▁विकलांग	-13748
▁sequence	-13749
▁देनेवाला	-13750
▁disbelieved	-13751
35	-13752
▁टि	-13753
लिता	-13754
▁vaj	-13755
▁ढूँ	-13756
▁हरी	-13757
pping	-13758
▁bare	-13759
▁bhai	-13760
▁lamp	-13761
▁scro	-13762
▁कोमल	-13763
▁टेली	-13764
▁सबका	-13765
▁हँसी	-13766
वृद्धि	-13767
▁वृत्त	-13768
▁danger	-13769
▁retire	-13770
▁chinese	-13771
▁majesty	-13772
▁putting	-13773
▁पार्श्व	-13774
ultaneous	-13775
▁प्रतिरोध	-13776
▁attracted	-13777
सो	-13778
lar	-13779
ंकी	-13780
चों	-13781
ताज	-13782
emor	-13783
quar	-13784
wali	-13785
ड़की	-13786
बाजी	-13787
ुकला	-13788
▁viz	-13789
▁घाव	-13790
▁सैक	-13791
etary	-13792
power	-13793
▁drew	-13794
▁pear	-13795
▁उन्म	-13796
▁नौका	-13797
▁पचास	-13798
▁सकाः	-13799
▁coven	-13800
▁newly	-13801
▁snake	-13802
▁असंभव	-13803
▁दिखाए	-13804
परीक्षा	-13805
▁equity	-13806
▁grants	-13807
▁seated	-13808
▁देखोगे	-13809
▁प्रतिल	-13810
▁माननीय	-13811
▁passion	-13812
▁किलोग्राम	-13813
▁questioned	-13814
▁whatsoever	-13815
▁composition	-13816
ैत	-13817
परा	-13818
सीए	-13819
▁til	-13820
▁कुम	-13821
▁अकार	-13822
▁मंडप	-13823
▁रहकर	-13824
anging	-13825
▁encry	-13826
▁rough	-13827
▁डालते	-13828
▁पुनरा	-13829
▁प्रोज	-13830
निर्माण	-13831
▁models	-13832
▁कार्बन	-13833
▁निपटने	-13834
▁प्रांत	-13835
▁favours	-13836
▁periods	-13837
▁surgery	-13838
▁ensuring	-13839
▁पहुंचाने	-13840
▁represented	-13841
▁implementing	-13842
▁unfortunately	-13843
%.	-13844
▁·	-13845
uti	-13846
▁̄à	-13847
bing	-13848
वकों	-13849
▁खौल	-13850
▁सिख	-13851
oring	-13852
▁lung	-13853
▁shut	-13854
▁करूँ	-13855
ushing	-13856
▁abdom	-13857
▁ruled	-13858
▁उड़ान	-13859
▁कपड़ा	-13860
▁ख्वाह	-13861
▁जैविक	-13862
▁नतीजा	-13863
▁नोड्स	-13864
▁एनपीएस	-13865
▁भगवान्	-13866
▁subhash	-13867
▁परेशानी	-13868
▁villagers	-13869
▁witnesses	-13870
▁क्रियाकला	-13871
▁supporting	-13872
▁simultaneous	-13873
cd	-13874
केल	-13875
टित	-13876
ब्ध	-13877
▁0,	-13878
▁इक	-13879
यायी	-13880
श्ता	-13881
▁ped	-13882
▁अलब	-13883
▁जबर	-13884
▁सकल	-13885
▁pest	-13886
▁tied	-13887
▁आगमन	-13888
▁texts	-13889
▁आँखें	-13890
▁जोड़ी	-13891
▁दोपहर	-13892
▁साकार	-13893
▁सार्थ	-13894
▁unlike	-13895
▁अनुकरण	-13896
▁ज़रूरी	-13897
▁ड्राइव	-13898
▁तत्त्व	-13899
▁स्वर्ग	-13900
▁brahmin	-13901
▁inhabit	-13902
▁touched	-13903
▁रिज़र्व	-13904
▁backward	-13905
▁इलाहाबाद	-13906
▁companion	-13907
▁recognize	-13908
▁संभावनाएं	-13909
▁सर्वप्रथम	-13910
▁consisting	-13911
▁frequently	-13912
7)	-13913
एव	-13914
lom	-13915
म्पा	-13916
▁कमर	-13917
▁कवर	-13918
▁फाइ	-13919
नीतिक	-13920
▁1998	-13921
▁oral	-13922
▁sees	-13923
▁अमृत	-13924
▁आजाद	-13925
▁उपाधि	-13926
▁दर्जे	-13927
▁पड़ते	-13928
▁हारून	-13929
▁insert	-13930
▁प्रचुर	-13931
▁enforce	-13932
▁झुठलाने	-13933
▁भागीदार	-13934
▁साझीदार	-13935
▁sentence	-13936
▁प्रतिकूल	-13937
▁मुख्यालय	-13938
▁entertain	-13939
▁अत्याचारी	-13940
▁surrounded	-13941
▁ungrateful	-13942
▁participants	-13943
डन	-13944
फॉ	-13945
टिक	-13946
साई	-13947
adur	-13948
umph	-13949
▁जुल	-13950
ogram	-13951
▁boat	-13952
▁उपर्	-13953
क्रामक	-13954
ाधिकार	-13955
▁owned	-13956
▁अभिनय	-13957
▁आज़मा	-13958
▁fought	-13959
▁manual	-13960
▁बख्शने	-13961
▁बिगाड़	-13962
▁intense	-13963
▁mixture	-13964
▁allahabad	-13965
▁extensive	-13966
▁nutrition	-13967
▁worshipped	-13968
▁consequences	-13969
88	-13970
si	-13971
sm	-13972
ढे	-13973
ज़त	-13974
जिन	-13975
निर	-13976
▁1)	-13977
▁gn	-13978
त्‍य	-13979
पानी	-13980
बानी	-13981
▁250	-13982
▁jew	-13983
▁yoj	-13984
▁नली	-13985
▁बोध	-13986
▁विज	-13987
▁हंस	-13988
▁१९९	-13989
▁1980	-13990
▁horn	-13991
▁meal	-13992
▁stom	-13993
▁पंचा	-13994
▁हाइड	-13995
▁chron	-13996
▁malay	-13997
▁miles	-13998
▁persp	-13999
▁चरणों	-14000
▁नमूना	-14001
▁निदान	-14002
▁प्रको	-14003
▁बदलें	-14004
▁infect	-14005
▁segment	-14006
▁vivekan	-14007
▁परिचालन	-14008
▁पहुँचने	-14009
▁extraord	-14010
▁अनुमोदित	-14011
▁distinction	-14012
raj	-14013
ंडे	-14014
थित	-14015
परक	-14016
महा	-14017
anes	-14018
aren	-14019
ल्ले	-14020
साफ़	-14021
▁bio	-14022
▁sul	-14023
▁tib	-14024
▁अहं	-14025
▁आएँ	-14026
▁भरत	-14027
▁सरी	-14028
oking	-14029
▁ille	-14030
▁पहने	-14031
▁charm	-14032
▁ranks	-14033
▁तालाब	-14034
प्रणाली	-14035
▁league	-14036
▁switch	-14037
▁गवर्नर	-14038
▁माँगता	-14039
▁austral	-14040
▁lucknow	-14041
▁generate	-14042
▁reduction	-14043
▁stability	-14044
▁रखनेवालों	-14045
▁स्वाधीनता	-14046
▁candidates	-14047
▁characteristics	-14048
-6	-14049
ड़ो	-14050
रीद	-14051
▁56	-14052
▁टक	-14053
bled	-14054
भक्त	-14055
ाराम	-14056
▁lac	-14057
▁vul	-14058
▁गंत	-14059
▁कन्न	-14060
▁छिपी	-14061
▁बढ़ो	-14062
▁बेहत	-14063
▁chose	-14064
▁shout	-14065
▁अपनाई	-14066
▁कच्चे	-14067
▁चीज़े	-14068
▁अनुचित	-14069
▁निराशा	-14070
▁fifteen	-14071
▁triumph	-14072
▁गर्भाशय	-14073
▁टर्मिनल	-14074
▁मॉड्यूल	-14075
▁dependent	-14076
▁वास्तुकला	-14077
▁inaugurate	-14078
▁गतिविधियां	-14079
shi	-14080
ॉकि	-14081
▁hi	-14082
▁ice	-14083
▁तंग	-14084
▁वें	-14085
डियों	-14086
▁lion	-14087
न्‍द्र	-14088
▁बाक़ी	-14089
▁telugu	-14090
▁earthqu	-14091
▁उद्यमों	-14092
▁confined	-14093
▁प्रस्तुति	-14094
▁eventually	-14095
fl	-14096
unk	-14097
ज़ल	-14098
सम्	-14099
ेयर	-14100
uram	-14101
र्जन	-14102
▁बेस	-14103
▁सुग	-14104
rates	-14105
▁ईमेल	-14106
▁लानत	-14107
▁boost	-14108
essions	-14109
▁guides	-14110
▁oldest	-14111
▁मशीनरी	-14112
▁creates	-14113
▁दोस्तों	-14114
▁वाक़िफ़	-14115
▁विवेकान	-14116
▁discover	-14117
▁wildlife	-14118
▁exchanges	-14119
▁पारस्परिक	-14120
uct	-14121
ूलन	-14122
ैरह	-14123
वाने	-14124
▁बचे	-14125
▁लोप	-14126
itals	-14127
▁1986	-14128
▁arun	-14129
▁genu	-14130
▁scan	-14131
▁ther	-14132
▁पूछे	-14133
▁domin	-14134
▁loose	-14135
▁shell	-14136
▁चक्कर	-14137
▁प्रगा	-14138
▁सुदूर	-14139
▁listed	-14140
▁prohib	-14141
▁ट्रांस	-14142
▁carries	-14143
▁denomin	-14144
▁experts	-14145
▁seminar	-14146
▁springs	-14147
▁vaccine	-14148
▁violent	-14149
वैज्ञानिक	-14150
▁describe	-14151
▁चित्रकला	-14152
▁algorithm	-14153
▁dangerous	-14154
▁excessive	-14155
▁engagement	-14156
▁declaration	-14157
▁39	-14158
▁sq	-14159
down	-14160
▁अपन	-14161
▁आवं	-14162
▁गंध	-14163
▁शपथ	-14164
स्मिक	-14165
▁hung	-14166
▁mary	-14167
▁मुख़	-14168
aryana	-14169
▁accum	-14170
▁dress	-14171
▁exped	-14172
▁छिद्र	-14173
▁बताना	-14174
▁मोहलत	-14175
▁रंगों	-14176
▁परिसंप	-14177
▁permiss	-14178
▁totally	-14179
▁किनारों	-14180
▁रोगियों	-14181
▁combined	-14182
▁entrance	-14183
▁supposed	-14184
▁अद्वितीय	-14185
▁elephants	-14186
▁primarily	-14187
▁countrymen	-14188
▁possession	-14189
hs	-14190
▁७	-14191
ugg	-14192
▁अट	-14193
anti	-14194
etan	-14195
िएशन	-14196
▁dac	-14197
▁आधी	-14198
ading	-14199
alore	-14200
▁badr	-14201
जीविका	-14202
▁tells	-14203
▁खासकर	-14204
▁पथभ्र	-14205
▁बरसात	-14206
▁metres	-14207
▁silent	-14208
▁अद्भुत	-14209
▁संपादक	-14210
▁सार्वभ	-14211
▁acceler	-14212
▁brahman	-14213
▁compuls	-14214
▁constitute	-14215
▁manuscript	-14216
▁सांप्रदायिक	-14217
▁representatives	-14218
तिश	-14219
▁ठे	-14220
ऊँगा	-14221
लंका	-14222
▁keys	-14223
▁गोला	-14224
▁देनी	-14225
▁दौरे	-14226
▁मज़े	-14227
▁मोर्	-14228
▁लखनऊ	-14229
▁सीखा	-14230
▁स्वै	-14231
earing	-14232
त्यक्ष	-14233
▁होगें	-14234
▁हथियार	-14235
▁enjoyed	-14236
▁nearest	-14237
▁vessels	-14238
▁younger	-14239
▁imported	-14240
▁payments	-14241
▁evaluation	-14242
▁territories	-14243
ॉय	-14244
खिक	-14245
▁13.	-14246
▁hem	-14247
▁जगा	-14248
▁1997	-14249
▁epic	-14250
▁pate	-14251
▁पनाह	-14252
▁मेगा	-14253
orters	-14254
यक्तिक	-14255
▁दिव्य	-14256
▁सौंपा	-14257
▁जिंदगी	-14258
▁बाज़ार	-14259
▁कॉन्फ़ि	-14260
▁विनियमन	-14261
▁headquar	-14262
▁honoured	-14263
▁प्रवृत्त	-14264
▁achieving	-14265
▁inclusive	-14266
▁occasions	-14267
▁operative	-14268
▁अनुस्मृति	-14269
▁collective	-14270
▁भ्रष्टाचार	-14271
▁maintaining	-14272
rh	-14273
ृश	-14274
▁Y	-14275
jun	-14276
eper	-14277
ione	-14278
▁कैम	-14279
▁सज्	-14280
▁हिल	-14281
▁narm	-14282
▁vish	-14283
▁गोली	-14284
▁निषे	-14285
▁मानस	-14286
▁त्रिप	-14287
▁player	-14288
▁मंत्रि	-14289
▁मजदूरी	-14290
▁ceremon	-14291
▁creator	-14292
▁sisters	-14293
▁चित्रों	-14294
▁मनोरंजन	-14295
▁machines	-14296
▁साक्षरता	-14297
▁sensitive	-14298
was	-14299
कोर	-14300
ठीक	-14301
पीठ	-14302
▁49	-14303
bles	-14304
प्पा	-14305
्रीट	-14306
▁इंच	-14307
▁ढोल	-14308
▁कहती	-14309
▁चारा	-14310
▁मंगल	-14311
▁विलय	-14312
▁सुनी	-14313
▁blame	-14314
▁depri	-14315
▁संप्र	-14316
▁विख्यात	-14317
▁आनुवंशिक	-14318
▁सत्यापित	-14319
▁privilege	-14320
▁ministries	-14321
▁strengthened	-14322
▁transportation	-14323
pm	-14324
had	-14325
▁43	-14326
▁85	-14327
▁दम	-14328
rers	-14329
क्के	-14330
ण्डे	-14331
▁gro	-14332
▁वीं	-14333
▁kath	-14334
▁जज़ा	-14335
▁होगे	-14336
साधारण	-14337
▁blank	-14338
▁cloud	-14339
▁loved	-14340
▁बॉक्स	-14341
▁मुफ्त	-14342
▁hunger	-14343
▁pestic	-14344
▁thrown	-14345
▁visits	-14346
▁निविदा	-14347
▁dynasty	-14348
▁आकस्मिक	-14349
▁हरियाणा	-14350
▁कृतज्ञता	-14351
▁recording	-14352
▁केन्द्रों	-14353
▁लाइब्रेरी	-14354
▁performing	-14355
▁revolutionary	-14356
जत	-14357
दक	-14358
जुन	-14359
पटा	-14360
/201	-14361
atra	-14362
यानक	-14363
▁kin	-14364
▁टैब	-14365
मुक्त	-14366
▁बढ़ी	-14367
▁लोहे	-14368
▁catch	-14369
▁lease	-14370
▁numer	-14371
▁न्यास	-14372
▁सेंटर	-14373
▁स्कीम	-14374
▁adding	-14375
▁मददगार	-14376
▁स्नातक	-14377
▁amounts	-14378
▁tissues	-14379
▁सुधारने	-14380
▁जानेवाले	-14381
▁दूरसंचार	-14382
▁scattered	-14383
▁remembered	-14384
ैम	-14385
▁८	-14386
asp	-14387
▁तृ	-14388
ahan	-14389
info	-14390
▁कीं	-14391
▁देह	-14392
▁फॉर	-14393
श्चित	-14394
▁1971	-14395
▁pune	-14396
▁कॉपी	-14397
▁धोखा	-14398
▁gross	-14399
▁hosts	-14400
▁काटने	-14401
▁जीवंत	-14402
▁वृद्ध	-14403
▁हल्के	-14404
▁दरवाजे	-14405
▁noticed	-14406
▁अध्यापक	-14407
▁प्रेषित	-14408
ilitation	-14409
▁rational	-14410
▁अत्याचार	-14411
▁अवसंरचना	-14412
▁परिणामों	-14413
▁प्रदेशों	-14414
▁financing	-14415
▁satisfied	-14416
▁प्रदर्शनी	-14417
▁स्वीकार्य	-14418
▁पूर्वोत्तर	-14419
▁इंजीनियरिंग	-14420
▁characteristic	-14421
लीन	-14422
leum	-14423
your	-14424
▁aer	-14425
▁cum	-14426
▁इधर	-14427
▁चिर	-14428
rogen	-14429
▁exem	-14430
▁घुमा	-14431
▁हिमन	-14432
gments	-14433
▁blast	-14434
▁calam	-14435
▁chart	-14436
▁enorm	-14437
▁gates	-14438
▁nearby	-14439
▁सचिवाल	-14440
▁protein	-14441
▁realise	-14442
▁प्रगाढ़	-14443
▁endeavour	-14444
▁himalayas	-14445
▁परिकल्पना	-14446
▁beneficent	-14447
जुट	-14448
हाद	-14449
मुना	-14450
▁120	-14451
▁15,	-14452
▁sab	-14453
▁गेट	-14454
ensus	-14455
स्फोट	-14456
▁उक्त	-14457
▁झूठा	-14458
▁दलील	-14459
▁पिला	-14460
▁लाभा	-14461
क्साइड	-14462
▁dealt	-14463
▁trump	-14464
▁उपदेश	-14465
▁मुस्क	-14466
▁patron	-14467
▁हालॉकि	-14468
▁designs	-14469
▁haryana	-14470
▁recruit	-14471
▁province	-14472
▁सम्पत्ति	-14473
▁अधिकारिता	-14474
▁प्रस्तावों	-14475
शुदा	-14476
▁15.	-14477
▁hat	-14478
▁घेर	-14479
▁ठाक	-14480
▁धूल	-14481
▁वेश	-14482
ariat	-14483
टामिन	-14484
▁pron	-14485
▁क्यू	-14486
▁पागल	-14487
▁बढ़े	-14488
▁बरकत	-14489
▁राजी	-14490
▁संधि	-14491
▁pione	-14492
▁posts	-14493
▁remed	-14494
▁worry	-14495
▁अतिथि	-14496
▁हानिक	-14497
▁copies	-14498
▁gained	-14499
▁एशियाई	-14500
▁क़िस्म	-14501
▁धर्मों	-14502
▁plastic	-14503
▁पहाड़ों	-14504
▁प्रिंटर	-14505
▁सत्यापन	-14506
▁memorial	-14507
▁कार्यकाल	-14508
▁decorated	-14509
▁recommended	-14510
▁अफगानिस्तान	-14511
▁geographical	-14512
bre	-14513
कथा	-14514
▁ki	-14515
▁छः	-14516
आईसी	-14517
र्थी	-14518
शिला	-14519
▁लची	-14520
gical	-14521
▁wire	-14522
▁अशोक	-14523
▁बाएँ	-14524
▁सुपु	-14525
▁aimed	-14526
▁तकलीफ	-14527
▁ancest	-14528
▁ruling	-14529
▁drowned	-14530
▁enables	-14531
▁flowing	-14532
▁lessons	-14533
▁opposed	-14534
▁चित्रित	-14535
▁डाटाबेस	-14536
▁sessions	-14537
▁visitors	-14538
▁तत्कालीन	-14539
▁protector	-14540
▁उपर्युक्त	-14541
▁delegation	-14542
▁approximately	-14543
ros	-14544
काज	-14545
बेह	-14546
cher	-14547
▁(10	-14548
▁nin	-14549
▁rbi	-14550
▁पेर	-14551
▁बिट	-14552
▁अतएव	-14553
▁सेंट	-14554
isible	-14555
ompass	-14556
▁embra	-14557
▁taxes	-14558
▁आभूषण	-14559
▁क्रोध	-14560
▁तेलुग	-14561
▁corona	-14562
▁planet	-14563
▁portra	-14564
▁enlight	-14565
▁females	-14566
▁निरन्तर	-14567
▁involving	-14568
▁बीमारियों	-14569
▁experienced	-14570
ema	-14571
ठार	-14572
लाइ	-14573
▁ht	-14574
▁रिए	-14575
▁abst	-14576
▁stem	-14577
▁विषा	-14578
▁brave	-14579
▁disse	-14580
▁keeps	-14581
▁एकजुट	-14582
▁चिंतन	-14583
▁मानने	-14584
▁करूँगा	-14585
▁imports	-14586
▁muscles	-14587
▁streams	-14588
▁offering	-14589
▁computing	-14590
▁enjoyment	-14591
▁intention	-14592
▁सत्याग्रह	-14593
▁grievances	-14594
▁membership	-14595
▁क्षतिग्रस्त	-14596
ेटी	-14597
rous	-14598
क्चर	-14599
वानि	-14600
▁16.	-14601
▁25,	-14602
▁अनो	-14603
▁पुत	-14604
chant	-14605
मताओं	-14606
▁1960	-14607
▁agro	-14608
▁john	-14609
▁scar	-14610
▁उठता	-14611
▁किला	-14612
▁चौथा	-14613
ipping	-14614
liance	-14615
▁prize	-14616
▁seeks	-14617
▁usage	-14618
▁जरुरी	-14619
▁butter	-14620
▁fairly	-14621
▁handle	-14622
▁कीटनाश	-14623
▁airport	-14624
▁falling	-14625
▁hardware	-14626
▁membrane	-14627
▁modified	-14628
▁integrity	-14629
▁कठिनाइयों	-14630
▁residential	-14631
cr	-14632
डब	-14633
राक	-14634
ताएं	-14635
वर्ग	-14636
▁खां	-14637
▁तदन	-14638
▁दमन	-14639
▁परस	-14640
▁bhav	-14641
▁hort	-14642
▁sake	-14643
▁इसमे	-14644
▁grief	-14645
▁sorry	-14646
▁tests	-14647
▁निराश	-14648
▁बदलते	-14649
ilation	-14650
▁bounty	-14651
▁brahma	-14652
▁varied	-14653
▁इंतजार	-14654
▁निर्धन	-14655
▁शर्तें	-14656
▁impress	-14657
▁जनजातीय	-14658
▁realized	-14659
▁resulted	-14660
▁satyagra	-14661
▁कंपनियां	-14662
▁पथभ्रष्ट	-14663
▁परिपूर्ण	-14664
za	-14665
उंट	-14666
गृह	-14667
ेंच	-14668
ज़ों	-14669
जाने	-14670
समूह	-14671
स्कर	-14672
▁मेज	-14673
▁सटी	-14674
aland	-14675
arati	-14676
assad	-14677
ipped	-14678
वर्धन	-14679
▁1930	-14680
▁clar	-14681
▁drag	-14682
ुदायिक	-14683
▁foods	-14684
▁resemb	-14685
▁पाठकों	-14686
▁crucial	-14687
▁recover	-14688
▁महासागर	-14689
▁समायोजन	-14690
▁ambassad	-14691
▁breeding	-14692
▁enhanced	-14693
▁राष्ट्री	-14694
▁शक्तियां	-14695
▁competent	-14696
▁libraries	-14697
▁programming	-14698
▁developments	-14699
cal	-14700
▁तद	-14701
aron	-14702
▁han	-14703
▁lin	-14704
▁una	-14705
▁एन्	-14706
atell	-14707
▁पेशी	-14708
▁digit	-14709
▁hydro	-14710
▁koran	-14711
▁marry	-14712
▁slope	-14713
▁खोलें	-14714
भूतियों	-14715
▁netaji	-14716
▁अनुभाग	-14717
▁चुपचाप	-14718
▁सुनवाई	-14719
▁सृष्टि	-14720
▁secular	-14721
▁त्योहार	-14722
▁प्रदत्त	-14723
▁maturity	-14724
▁watching	-14725
▁साझीदारी	-14726
स्ट्रेलिया	-14727
▁beneficial	-14728
▁possibility	-14729
उल	-14730
▁बट	-14731
दादा	-14732
▁nir	-14733
▁sed	-14734
▁रवि	-14735
▁रुक	-14736
बोर्ड	-14737
▁edit	-14738
▁खजूर	-14739
▁बांट	-14740
▁जानती	-14741
▁ललिता	-14742
▁संकाय	-14743
▁हममें	-14744
▁grains	-14745
▁specim	-14746
▁worker	-14747
▁yojana	-14748
▁cutting	-14749
▁discrim	-14750
▁massive	-14751
▁फ़ाइलें	-14752
▁devotees	-14753
▁somewhat	-14754
▁addressing	-14755
▁electrical	-14756
▁प्रावधानों	-14757
kim	-14758
प्ल	-14759
ोधी	-14760
गारी	-14761
वाणी	-14762
हासन	-14763
ुतोष	-14764
▁tap	-14765
▁हाइ	-14766
ष्कृत	-14767
ुल्ला	-14768
▁chit	-14769
▁hors	-14770
▁mole	-14771
▁औजार	-14772
▁समाह	-14773
▁hotel	-14774
▁souls	-14775
▁guests	-14776
▁reveal	-14777
▁कहलाता	-14778
▁गंतव्य	-14779
▁दुर्गा	-14780
▁भाइयों	-14781
▁lending	-14782
▁warnings	-14783
▁उपयोगिता	-14784
▁संरक्षित	-14785
▁encompass	-14786
▁reflected	-14787
▁sanctioned	-14788
uri	-14789
zing	-14790
मोहन	-14791
▁ऊंट	-14792
▁नित	-14793
▁पंथ	-14794
house	-14795
ताबिक	-14796
▁exit	-14797
▁आईडी	-14798
▁कब्र	-14799
▁मलया	-14800
▁acute	-14801
▁doors	-14802
▁mouse	-14803
▁नामों	-14804
▁विधिक	-14805
justice	-14806
धिकारिक	-14807
▁mining	-14808
▁मस्जिद	-14809
▁despair	-14810
▁अनुशासन	-14811
▁फ़ंक्शन	-14812
▁मुद्रित	-14813
▁सशस्त्र	-14814
▁strongly	-14815
▁श्रीलंका	-14816
▁medicines	-14817
▁originally	-14818
▁extraordinary	-14819
14	-14820
िणी	-14821
▁bid	-14822
▁gun	-14823
▁जुट	-14824
▁मंग	-14825
igarh	-14826
ishes	-14827
▁पुणे	-14828
▁रोमा	-14829
▁केडीई	-14830
▁genetic	-14831
▁serving	-14832
▁अनुयायी	-14833
▁अलबत्ता	-14834
▁expanded	-14835
▁प्रतिदान	-14836
▁suggestions	-14837
-7	-14838
1}	-14839
हु	-14840
hal	-14841
osa	-14842
ज़ू	-14843
ॉजी	-14844
ोजी	-14845
anch	-14846
anga	-14847
conf	-14848
nity	-14849
ायें	-14850
▁ber	-14851
▁औरत	-14852
▁टाल	-14853
▁फेफ	-14854
▁यौन	-14855
▁शिल	-14856
eding	-14857
ingly	-14858
▁kids	-14859
▁ward	-14860
▁कहें	-14861
▁पाइप	-14862
▁समीप	-14863
▁हमले	-14864
▁उठाकर	-14865
▁मूत्र	-14866
▁bought	-14867
▁preval	-14868
▁उन्नयन	-14869
▁दिखाना	-14870
▁निवेदन	-14871
▁मुकदमे	-14872
▁लाभांश	-14873
lication	-14874
▁colours	-14875
▁entries	-14876
▁fulfill	-14877
▁thereby	-14878
▁मुताबिक	-14879
▁विटामिन	-14880
▁entering	-14881
▁नियन्त्र	-14882
▁राजमार्ग	-14883
▁petroleum	-14884
▁socialist	-14885
▁क्षेत्रफल	-14886
▁विशेषताओं	-14887
oys	-14888
हान	-14889
upon	-14890
दिता	-14891
▁tan	-14892
▁दंत	-14893
▁पेज	-14894
▁आर्य	-14895
▁कलाम	-14896
▁वादी	-14897
iously	-14898
▁कमेटी	-14899
▁पार्ट	-14900
▁वाक्य	-14901
▁स्टॉक	-14902
वैधानिक	-14903
▁नारियल	-14904
▁भेदभाव	-14905
▁imposed	-14906
▁mandapa	-14907
▁deceased	-14908
▁imprison	-14909
▁rendered	-14910
▁residence	-14911
▁exhibition	-14912
▁identification	-14913
yl	-14914
आउट	-14915
वाब	-14916
▁${	-14917
▁ek	-14918
file	-14919
▁obe	-14920
▁मेड	-14921
oding	-14922
योग्य	-14923
▁pool	-14924
▁सेवन	-14925
▁pharm	-14926
▁खेतों	-14927
▁मजबूर	-14928
▁magist	-14929
ribution	-14930
▁bahadur	-14931
▁circuit	-14932
▁अवस्थित	-14933
▁interact	-14934
▁celebrate	-14935
▁radiation	-14936
▁सामुदायिक	-14937
▁supplement	-14938
alg	-14939
कोष	-14940
्ती	-14941
▁kut	-14942
▁शेख	-14943
▁सहे	-14944
▁सोम	-14945
साइटी	-14946
्रेषण	-14947
▁1976	-14948
▁आहरण	-14949
▁ऊँची	-14950
पत्रों	-14951
▁alloc	-14952
▁mould	-14953
▁गेहूं	-14954
▁रवाना	-14955
▁लीजिए	-14956
▁मुहैया	-14957
▁artists	-14958
▁genuine	-14959
▁handling	-14960
▁slightly	-14961
▁bangalore	-14962
▁meanwhile	-14963
▁परहेज़गार	-14964
▁संवेदनशील	-14965
▁agreements	-14966
▁scriptures	-14967
bu	-14968
mo	-14969
ोश	-14970
irs	-14971
rav	-14972
▁("	-14973
ाधिक	-14974
▁cub	-14975
▁pix	-14976
▁रहम	-14977
▁orph	-14978
▁whis	-14979
▁बादल	-14980
▁मेमो	-14981
▁norms	-14982
▁vigil	-14983
▁आमदनी	-14984
▁वापिस	-14985
▁संचित	-14986
certain	-14987
▁plains	-14988
▁आंकड़ा	-14989
▁सर्वथा	-14990
▁concess	-14991
▁folders	-14992
▁singles	-14993
▁आजीविका	-14994
▁लक्षणों	-14995
▁हिंदुओं	-14996
▁समाजवादी	-14997
▁विशेषताएं	-14998
▁—	-14999
दाह	-15000
नेस	-15001
वचन	-15002
▁06	-15003
▁46	-15004
▁66	-15005
▁`%	-15006
▁जक	-15007
▁14.	-15008
▁wre	-15009
▁बिख	-15010
▁वाई	-15011
ports	-15012
▁adorn	-15013
▁finds	-15014
▁motiv	-15015
▁wheel	-15016
▁क़रीब	-15017
▁फ्रेम	-15018
▁भयानक	-15019
▁लाहौर	-15020
▁हेक्ट	-15021
▁debate	-15022
▁recited	-15023
▁व्याकरण	-15024
▁सचिवालय	-15025
▁सम्बद्ध	-15026
▁deduction	-15027
▁emotional	-15028
▁himalayan	-15029
▁ownership	-15030
▁कॉन्फ़िगर	-15031
▁imagination	-15032
24	-15033
डू	-15034
sar	-15035
खने	-15036
णता	-15037
वाट	-15038
▁51	-15039
ण्डल	-15040
मुखी	-15041
▁cad	-15042
▁gal	-15043
▁लीग	-15044
▁वहन	-15045
▁cure	-15046
▁glac	-15047
▁mini	-15048
▁घाटा	-15049
▁टिका	-15050
▁पटेल	-15051
▁भेड़	-15052
▁amrit	-15053
▁crowd	-15054
▁haply	-15055
▁paddy	-15056
▁pairs	-15057
▁patel	-15058
▁virus	-15059
▁ठाकुर	-15060
▁फैसले	-15061
▁भ्रूण	-15062
▁purity	-15063
▁retrie	-15064
▁satell	-15065
▁बढ़ाया	-15066
▁checked	-15067
▁स्थिरता	-15068
▁networks	-15069
▁peaceful	-15070
▁philosoph	-15071
▁preparing	-15072
▁referring	-15073
▁इंजीनियरी	-15074
▁developmental	-15075
नगर	-15076
पाट	-15077
बंद	-15078
▁41	-15079
▁64	-15080
बड़ी	-15081
▁हाई	-15082
utory	-15083
▁nice	-15084
▁rejo	-15085
▁आलेख	-15086
▁एकड़	-15087
▁एसोस	-15088
▁नक़ल	-15089
▁बजाया	-15090
▁स्नान	-15091
▁module	-15092
▁virtue	-15093
▁cooking	-15094
▁महिलाएं	-15095
▁governors	-15096
▁conversion	-15097
▁परहेज़गारों	-15098
asi	-15099
ople	-15100
कक्ष	-15101
बड़े	-15102
▁sha	-15103
▁smt	-15104
▁कुट	-15105
▁भूट	-15106
▁वाइ	-15107
khand	-15108
plete	-15109
व्यों	-15110
▁maid	-15111
▁pard	-15112
▁vote	-15113
▁ग्रा	-15114
▁चाँद	-15115
▁छुपा	-15116
▁ज़बर	-15117
▁फैले	-15118
▁फ्लै	-15119
▁संकल	-15120
▁raman	-15121
▁lahore	-15122
▁lowest	-15123
▁random	-15124
▁अन्वेष	-15125
▁नवीकरण	-15126
▁निकाले	-15127
▁evolved	-15128
▁stomach	-15129
▁सोसाइटी	-15130
▁believes	-15131
▁concerns	-15132
▁dialogue	-15133
▁employer	-15134
▁sacrific	-15135
▁V	-15136
hai	-15137
गिक	-15138
ुती	-15139
▁लय	-15140
▁हॉ	-15141
ब्बा	-15142
▁12,	-15143
▁abd	-15144
▁gul	-15145
▁rao	-15146
▁ric	-15147
▁कमल	-15148
▁खैर	-15149
utosh	-15150
▁adam	-15151
▁ages	-15152
▁lots	-15153
▁चलकर	-15154
▁यानि	-15155
▁वैसी	-15156
▁सूरत	-15157
▁श्रेय	-15158
ciation	-15159
▁fortun	-15160
▁reconst	-15161
▁प्रबन्ध	-15162
▁indicates	-15163
▁प्राणियों	-15164
▁प्लास्टिक	-15165
▁acquisition	-15166
26	-15167
तीन	-15168
थाम	-15169
बाज	-15170
rupt	-15171
▁अवयव	-15172
▁उभार	-15173
▁ग़ौर	-15174
▁दत्त	-15175
▁दरों	-15176
▁पावर	-15177
च्छेदन	-15178
▁2014)	-15179
▁arise	-15180
▁coins	-15181
▁प्रसव	-15182
▁horses	-15183
▁sounds	-15184
▁subsid	-15185
▁तुरन्त	-15186
▁मुसीबत	-15187
cription	-15188
▁equival	-15189
▁गुजराती	-15190
▁मूर्तिक	-15191
▁covenant	-15192
▁ultimate	-15193
89	-15194
ोजक	-15195
▁ऑप	-15196
shan	-15197
ट्टा	-15198
म्बई	-15199
▁fro	-15200
▁loy	-15201
▁vas	-15202
▁जोड	-15203
▁फौज	-15204
cular	-15205
▁1993	-15206
▁deed	-15207
▁चोरी	-15208
▁पायी	-15209
क्षमता	-15210
धारकों	-15211
▁idols	-15212
▁ग्यार	-15213
▁निबंध	-15214
▁मानों	-15215
▁हल्की	-15216
▁adults	-15217
▁affair	-15218
▁crafts	-15219
▁defeat	-15220
▁rabind	-15221
▁पेड़ों	-15222
▁सार्थक	-15223
▁license	-15224
▁wearing	-15225
▁अनुभवों	-15226
▁खिलाड़ी	-15227
▁examined	-15228
▁उत्पादित	-15229
▁क्षमताओं	-15230
▁undertake	-15231
▁उम्मीदवार	-15232
▁यात्रियों	-15233
▁authorised	-15234
▁कार्यकलापों	-15235
▁consultation	-15236
आइ	-15237
och	-15238
निय	-15239
ूसु	-15240
▁ul	-15241
wide	-15242
तत्व	-15243
▁hes	-15244
▁pel	-15245
▁sme	-15246
▁yam	-15247
▁दरम	-15248
▁भगत	-15249
क्टरी	-15250
▁chur	-15251
▁nand	-15252
▁nerv	-15253
▁कॉर्	-15254
enance	-15255
संबंधी	-15256
▁tooth	-15257
▁unexp	-15258
▁अवतार	-15259
▁डालें	-15260
▁स्नेह	-15261
▁स्वाय	-15262
▁paying	-15263
▁permit	-15264
▁निर्गम	-15265
▁लोकसभा	-15266
▁विकिरण	-15267
▁शासकों	-15268
ployment	-15269
▁arrival	-15270
▁binding	-15271
▁आदमियों	-15272
▁इस्लामी	-15273
▁discount	-15274
▁कहानियाँ	-15275
▁निर्माता	-15276
▁संस्थागत	-15277
▁plaintiff	-15278
▁appreciate	-15279
,%	-15280
.—	-15281
je	-15282
isc	-15283
हीत	-15284
ूरो	-15285
ेरा	-15286
▁डु	-15287
ार्ज	-15288
▁cul	-15289
▁tat	-15290
▁गड़	-15291
▁जता	-15292
▁रोब	-15293
▁हुक	-15294
apped	-15295
conut	-15296
guard	-15297
युद्ध	-15298
ष्ठान	-15299
▁atal	-15300
▁fool	-15301
▁gree	-15302
▁कमाई	-15303
▁घेरे	-15304
▁नींद	-15305
▁वरीय	-15306
lessly	-15307
क्सीजन	-15308
▁backs	-15309
▁lands	-15310
▁lingu	-15311
▁क़ायम	-15312
▁किशोर	-15313
▁बर्तन	-15314
▁सोचना	-15315
▁bhutan	-15316
▁diplom	-15317
▁legend	-15318
▁कीमतों	-15319
▁पंचांग	-15320
▁विक्रय	-15321
▁browser	-15322
▁conceal	-15323
▁डेटाबेस	-15324
▁gujarati	-15325
▁अनुमानित	-15326
▁इन्होंने	-15327
▁श्रमिकों	-15328
▁wonderful	-15329
▁complaints	-15330
कौ	-15331
-20	-15332
adh	-15333
ena	-15334
kal	-15335
ोडा	-15336
inst	-15337
छोटे	-15338
पंथी	-15339
▁vid	-15340
orted	-15341
ख़ेरत	-15342
ख़्या	-15343
लियां	-15344
▁dies	-15345
▁gest	-15346
▁jung	-15347
▁बाबत	-15348
माताओं	-15349
▁sperm	-15350
▁german	-15351
▁themes	-15352
▁पर्यटक	-15353
▁सेवानि	-15354
▁coconut	-15355
▁routine	-15356
▁strings	-15357
▁weapons	-15358
▁विचित्र	-15359
▁executed	-15360
▁precious	-15361
▁पूर्णतया	-15362
▁gathering	-15363
▁injustice	-15364
▁मंत्रियों	-15365
▁impression	-15366
▁पेट्रोलियम	-15367
▁conventional	-15368
▁subsequently	-15369
टने	-15370
▁54	-15371
झाने	-15372
▁50%	-15373
▁tum	-15374
▁गढ़	-15375
▁चूक	-15376
ician	-15377
▁clin	-15378
▁orth	-15379
▁rani	-15380
▁कीर्	-15381
तन्त्र	-15382
प्रदेश	-15383
▁brand	-15384
▁patna	-15385
▁persu	-15386
▁sixty	-15387
▁smoke	-15388
▁threw	-15389
▁बहुमत	-15390
▁लिखें	-15391
▁humble	-15392
▁shadow	-15393
▁आशुतोष	-15394
▁उपग्रह	-15395
▁नर्मदा	-15396
▁मजबूती	-15397
▁सांख्य	-15398
▁attacks	-15399
▁typical	-15400
▁indicate	-15401
▁infinite	-15402
▁आधिकारिक	-15403
▁संगोष्ठी	-15404
▁हिन्दुओं	-15405
▁secretariat	-15406
jj	-15407
gov	-15408
द्म	-15409
▁ze	-15410
▁कण	-15411
bhar	-15412
mits	-15413
रेटर	-15414
▁aur	-15415
▁gap	-15416
▁पहच	-15417
ether	-15418
urred	-15419
▁iran	-15420
▁remo	-15421
▁upan	-15422
▁रावण	-15423
▁anger	-15424
▁असमान	-15425
▁किराए	-15426
▁जिसमे	-15427
▁हज़ार	-15428
▁headed	-15429
▁उन्नति	-15430
▁किराया	-15431
▁छोड़ने	-15432
▁निकलता	-15433
▁समाहित	-15434
▁skilled	-15435
▁aircraft	-15436
▁colonial	-15437
▁visiting	-15438
▁एक्सचेंज	-15439
▁प्रख्यात	-15440
▁judiciary	-15441
▁positions	-15442
▁प्रेमचन्द	-15443
▁प्रोजेक्ट	-15444
▁हार्डवेयर	-15445
▁controvers	-15446
▁statistics	-15447
▁प्रौद्योगिकियों	-15448
▁K	-15449
iti	-15450
udi	-15451
याम	-15452
काना	-15453
▁धरो	-15454
▁cher	-15455
▁fees	-15456
▁grie	-15457
▁अनदे	-15458
▁2015)	-15459
▁बंगला	-15460
▁सहभाग	-15461
▁bitter	-15462
▁repair	-15463
▁परसतिश	-15464
▁पुस्‍त	-15465
▁academy	-15466
▁assumed	-15467
▁प्रान्त	-15468
▁सर्वज्ञ	-15469
▁शास्त्री	-15470
▁resulting	-15471
▁subsequent	-15472
▁मुख्यमंत्री	-15473
चाल	-15474
ज्ह	-15475
तको	-15476
बरत	-15477
यंकर	-15478
▁कैद	-15479
▁सना	-15480
payee	-15481
दर्शक	-15482
▁कथित	-15483
▁तेज़	-15484
▁मरने	-15485
▁लगाई	-15486
▁ज़बान	-15487
▁दुग्ध	-15488
▁deemed	-15489
▁diabet	-15490
▁dispos	-15491
▁wished	-15492
▁प्रौढ़	-15493
▁संपादन	-15494
▁answers	-15495
▁bearing	-15496
▁अपशिष्ट	-15497
▁आश्वासन	-15498
▁contrary	-15499
▁thorough	-15500
▁accounting	-15501
▁wrongdoers	-15502
3)	-15503
ek	-15504
pi	-15505
met	-15506
oor	-15507
तिल	-15508
हें	-15509
isan	-15510
राइट	-15511
र्षि	-15512
▁घाय	-15513
▁रसी	-15514
वियों	-15515
▁maur	-15516
▁आपात	-15517
▁डरता	-15518
▁नारी	-15519
▁बताए	-15520
▁सरपर	-15521
▁covid	-15522
▁innoc	-15523
▁talks	-15524
▁अभिने	-15525
▁पूछते	-15526
▁व्यास	-15527
▁entity	-15528
▁ignore	-15529
▁उद्यमी	-15530
▁enquiry	-15531
▁trumpet	-15532
▁स्वदेशी	-15533
▁वैयक्तिक	-15534
▁chemicals	-15535
▁listening	-15536
▁spreading	-15537
II	-15538
ँजी	-15539
सिड	-15540
have	-15541
टीएम	-15542
सिटी	-15543
▁20,	-15544
▁नरम	-15545
▁वाम	-15546
ensed	-15547
न्नाथ	-15548
▁1988	-15549
▁hunt	-15550
▁hurt	-15551
स्थापन	-15552
▁lotus	-15553
▁monso	-15554
▁overw	-15555
▁swift	-15556
▁urged	-15557
▁आगामी	-15558
▁कोविड	-15559
▁दवाओं	-15560
▁पड़ोस	-15561
▁संतान	-15562
रूद्दीन	-15563
▁talked	-15564
▁transf	-15565
▁इसलिये	-15566
▁दुश्मन	-15567
▁मज़बूत	-15568
▁anybody	-15569
▁पुकारते	-15570
▁संतुलित	-15571
▁vajpayee	-15572
▁inhabitants	-15573
enn	-15574
पटल	-15575
वटी	-15576
▁हन	-15577
टर्न	-15578
सीडी	-15579
▁suf	-15580
▁केश	-15581
▁खपत	-15582
▁चित	-15583
मानों	-15584
▁कारा	-15585
▁तारे	-15586
▁ब्यौ	-15587
vation	-15588
निश्चय	-15589
▁insol	-15590
▁yours	-15591
▁गार्ड	-15592
▁breath	-15593
▁portal	-15594
▁जनजाति	-15595
▁फोल्डर	-15596
▁साक्षा	-15597
▁mineral	-15598
▁अनुभूति	-15599
▁उन्मूलन	-15600
▁दरमियान	-15601
▁लाभदायक	-15602
▁सिंहासन	-15603
▁keyboard	-15604
▁surgical	-15605
▁लड़कियों	-15606
▁संक्रिया	-15607
▁attribute	-15608
▁commodity	-15609
▁initially	-15610
▁inspection	-15611
36	-15612
ौफ	-15613
eff	-15614
ंची	-15615
इंड	-15616
वेट	-15617
ोगी	-15618
ashi	-15619
उनके	-15620
पालन	-15621
रांत	-15622
हार्	-15623
▁hub	-15624
▁lol	-15625
▁url	-15626
ब्लिक	-15627
विशेष	-15628
▁vain	-15629
▁मारा	-15630
▁मौके	-15631
[...]
